{"0": "\u0000", "1": "\u0001", "2": "\u0002", "3": "\u0003", "4": "\u0004", "5": "\u0005", "6": "\u0006", "7": "\u0007", "8": "\b", "9": "\t", "10": "\n", "11": "\u000b", "12": "\f", "13": "\r", "14": "\u000e", "15": "\u000f", "16": "\u0010", "17": "\u0011", "18": "\u0012", "19": "\u0013", "20": "\u0014", "21": "\u0015", "22": "\u0016", "23": "\u0017", "24": "\u0018", "25": "\u0019", "26": "\u001a", "27": "\u001b", "28": "\u001c", "29": "\u001d", "30": "\u001e", "31": "\u001f", "32": " ", "33": "!", "34": "\"", "35": "#", "36": "$", "37": "%", "38": "&", "39": "'", "40": "(", "41": ")", "42": "*", "43": "+", "44": ",", "45": "-", "46": ".", "47": "/", "48": "0", "49": "1", "50": "2", "51": "3", "52": "4", "53": "5", "54": "6", "55": "7", "56": "8", "57": "9", "58": ":", "59": ";", "60": "<", "61": "=", "62": ">", "63": "?", "64": "@", "65": "A", "66": "B", "67": "C", "68": "D", "69": "E", "70": "F", "71": "G", "72": "H", "73": "I", "74": "J", "75": "K", "76": "L", "77": "M", "78": "N", "79": "O", "80": "P", "81": "Q", "82": "R", "83": "S", "84": "T", "85": "U", "86": "V", "87": "W", "88": "X", "89": "Y", "90": "Z", "91": "[", "92": "\\", "93": "]", "94": "^", "95": "_", "96": "`", "97": "a", "98": "b", "99": "c", "100": "d", "101": "e", "102": "f", "103": "g", "104": "h", "105": "i", "106": "j", "107": "k", "108": "l", "109": "m", "110": "n", "111": "o", "112": "p", "113": "q", "114": "r", "115": "s", "116": "t", "117": "u", "118": "v", "119": "w", "120": "x", "121": "y", "122": "z", "123": "{", "124": "|", "125": "}", "126": "~", "127": "\u007f", "128": "", "129": "", "130": "", "131": "", "132": "", "133": "", "134": "", "135": "", "136": "", "137": "", "138": "", "139": "", "140": "", "141": "", "142": "", "143": "", "144": "", "145": "", "146": "", "147": "", "148": "", "149": "", "150": "", "151": "", "152": "", "153": "", "154": "", "155": "", "156": "", "157": "", "158": "", "159": "", "160": "", "161": "", "162": "", "163": "", "164": "", "165": "", "166": "", "167": "", "168": "", "169": "", "170": "", "171": "", "172": "", "173": "", "174": "", "175": "", "176": "", "177": "", "178": "", "179": "", "180": "", "181": "", "182": "", "183": "", "184": "", "185": "", "186": "", "187": "", "188": "", "189": "", "190": "", "191": "", "192": "", "193": "", "194": "", "195": "", "196": "", "197": "", "198": "", "199": "", "200": "", "201": "", "202": "", "203": "", "204": "", "205": "", "206": "", "207": "", "208": "", "209": "", "210": "", "211": "", "212": "", "213": "", "214": "", "215": "", "216": "", "217": "", "218": "", "219": "", "220": "", "221": "", "222": "", "223": "", "224": "", "225": "", "226": "", "227": "", "228": "", "229": "", "230": "", "231": "", "232": "", "233": "", "234": "", "235": "", "236": "", "237": "", "238": "", "239": "", "240": "", "241": "", "242": "", "243": "", "244": "", "245": "", "246": "", "247": "", "248": "", "249": "", "250": "", "251": "", "252": "", "253": "", "254": "", "255": "", "256": "<|endoftext|>", "257": " t", "258": " a", "259": "he", "260": "in", "261": "re", "262": " the", "263": "on", "264": "er", "265": " s", "266": " w", "267": "at", "268": " o", "269": "en", "270": " c", "271": "it", "272": "is", "273": "an", "274": "or", "275": " b", "276": "es", "277": "ed", "278": " f", "279": "ing", "280": " p", "281": "ou", "282": " an", "283": "al", "284": " to", "285": "ar", "286": " m", "287": " in", "288": " of", "289": " h", "290": " d", "291": "", "292": "as", "293": "ic", "294": " and", "295": " th", "296": "le", "297": "om", "298": "ion", "299": "ll", "300": "ent", "301": " n", "302": " l", "303": " re", "304": "st", "305": "ve", "306": "ly", "307": " e", "308": "ro", "309": " be", "310": " g", "311": "id", "312": "ut", "313": "ac", "314": "ot", "315": " T", "316": " I", "317": " that", "318": " on", "319": "ay", "320": " S", "321": " is", "322": "et", "323": "im", "324": "am", "325": "ad", "326": "ow", "327": "se", "328": "ig", "329": " for", "330": "\u2019", "331": " A", "332": "ver", "333": "ur", "334": "ct", "335": "ld", "336": " C", "337": " u", "338": " st", "339": " y", "340": " it", "341": " he", "342": "ir", "343": "ation", "344": "ith", "345": " wh", "346": " M", "347": "ce", "348": "ter", "349": "ol", "350": " we", "351": "il", "352": " with", "353": " as", "354": " B", "355": "ch", "356": "ill", "357": "nd", "358": " P", "359": " was", "360": " you", "361": "ers", "362": "ke", "363": " ", "364": " con", "365": " de", "366": " r", "367": "her", "368": "if", "369": "ate", "370": " at", "371": "ag", "372": " ha", "373": " W", "374": " se", "375": " H", "376": "ore", "377": " pro", "378": "ul", "379": "pp", "380": "ment", "381": "ri", "382": " are", "383": " D", "384": "est", "385": " 1", "386": "us", "387": "ist", "388": " com", "389": "and", "390": " R", "391": "op", "392": "ain", "393": " The", "394": " 2", "395": "igh", "396": "rom", "397": " (", "398": "ort", "399": "od", "400": " ne", "401": " F", "402": "un", "403": "um", "404": " ex", "405": "res", "406": "ab", "407": "\u201d", "408": " not", "409": " N", "410": " v", "411": "ess", "412": " have", "413": "ity", "414": "ould", "415": "em", "416": " or", "417": "th", "418": " by", "419": "os", "420": "ant", "421": " G", "422": "ive", "423": " from", "424": " al", "425": "el", "426": "'s", "427": "oc", "428": " su", "429": "art", "430": " L", "431": " sh", "432": " this", "433": "nt", "434": "qu", "435": "ight", "436": "pe", "437": "ust", "438": " le", "439": " E", "440": "ies", "441": "end", "442": " ch", "443": " sa", "444": "out", "445": " ab", "446": "The", "447": "all", "448": "ie", "449": "ack", "450": "00", "451": "red", "452": " \u201c", "453": " has", "454": "ally", "455": " J", "456": " pl", "457": " go", "458": "ard", "459": "iv", "460": "ome", "461": " his", "462": "ap", "463": "gh", "464": "ost", "465": "ear", "466": " O", "467": "our", "468": " tr", "469": "ast", "470": " j", "471": "ak", "472": "ud", "473": " do", "474": " they", "475": " but", "476": " wor", "477": "rou", "478": " can", "479": "ge", "480": " will", "481": " said", "482": " whe", "483": " U", "484": " k", "485": "ich", "486": " all", "487": "ok", "488": " \"", "489": " who", "490": "ide", "491": " int", "492": "ame", "493": "ans", "494": "ther", "495": "ial", "496": " out", "497": " their", "498": "ff", "499": "ong", "500": "ect", "501": "pl", "502": "ice", "503": "pt", "504": "ure", "505": "one", "506": " more", "507": "age", "508": "ions", "509": "act", "510": "ike", "511": " me", "512": " up", "513": "ous", "514": "ine", "515": " ad", "516": " about", "517": "ated", "518": "ra", "519": "ber", "520": " one", "521": " were", "522": " so", "523": " us", "524": "og", "525": "ime", "526": " K", "527": "ep", "528": " had", "529": "ia", "530": "are", "531": "ub", "532": "cc", "533": " would", "534": " 20", "535": " cl", "536": " im", "537": "ind", "538": " which", "539": "ake", "540": "ue", "541": " cont", "542": "iz", "543": "very", "544": " ag", "545": " te", "546": " off", "547": " comp", "548": " un", "549": " been", "550": " St", "551": " en", "552": "so", "553": "per", "554": "au", "555": "ign", "556": " Th", "557": "ary", "558": "ace", "559": "ip", "560": " year", "561": "ew", "562": " like", "563": "ere", "564": "ven", "565": "ook", "566": " inc", "567": "ays", "568": " man", "569": " pe", "570": "ry", "571": "ose", "572": " res", "573": "ite", "574": " per", "575": "able", "576": "ass", "577": "ord", "578": " sp", "579": "ire", "580": " other", "581": " In", "582": "mer", "583": " some", "584": "ile", "585": "ib", "586": "ence", "587": "ople", "588": " 201", "589": "ks", "590": "ations", "591": " over", "592": " there", "593": "ical", "594": "ress", "595": " dis", "596": "ult", "597": "int", "598": " new", "599": "own", "600": " than", "601": " also", "602": " ar", "603": " bec", "604": " them", "605": "ance", "606": "ru", "607": "ough", "608": "ount", "609": "port", "610": " app", "611": " your", "612": "ail", "613": " part", "614": " when", "615": " what", "616": "ree", "617": "ond", "618": "orm", "619": " people", "620": " sc", "621": "fter", "622": "av", "623": "ase", "624": " qu", "625": " Ch", "626": " any", "627": " just", "628": " Y", "629": " its", "630": "ach", "631": " time", "632": " It", "633": " kn", "634": " her", "635": " 3", "636": "ens", "637": "lic", "638": " my", "639": " rec", "640": "reat", "641": " get", "642": " if", "643": " V", "644": ".\u201d", "645": "ian", "646": " into", "647": " work", "648": "ound", "649": " tw", "650": "irst", "651": "vel", "652": " no", "653": "ction", "654": "du", "655": "ings", "656": "ory", "657": "ick", "658": " our", "659": "ition", "660": "ident", "661": "ors", "662": "ob", "663": " -", "664": " pre", "665": "ove", "666": "ang", "667": " play", "668": "ink", "669": "wn", "670": "ause", "671": "amp", "672": "te", "673": "ade", "674": "hing", "675": "ates", "676": "ark", "677": " ro", "678": " she", "679": " pol", "680": "vers", "681": " co", "682": " after", "683": ",\u201d", "684": "ne", "685": " could", "686": " first", "687": " how", "688": " He", "689": " 19", "690": "ious", "691": " acc", "692": "nder", "693": " him", "694": "'t", "695": "ild", "696": "ons", "697": "aw", "698": " po", "699": " only", "700": " fe", "701": " att", "702": "ict", "703": "hed", "704": " pr", "705": " two", "706": "rit", "707": "ov", "708": "ish", "709": " comm", "710": " spe", "711": "\u201c", "712": "form", "713": " act", "714": "we", "715": "erv", "716": " bl", "717": "ft", "718": " bet", "719": " dec", "720": ".\"", "721": "ning", "722": " back", "723": "ces", "724": " most", "725": "ood", "726": "ck", "727": " \u2013", "728": " am", "729": "oy", "730": " did", "731": "iff", "732": "rough", "733": "round", "734": "ater", "735": " again", "736": " 4", "737": "ual", "738": "day", "739": "ise", "740": " want", "741": " des", "742": " under", "743": "..", "744": "sel", "745": "ull", "746": " cons", "747": " because", "748": " \u2014", "749": " now", "750": "lud", "751": "ents", "752": " years", "753": "man", "754": "ublic", "755": " need", "756": "tern", "757": "ec", "758": " $", "759": " even", "760": "iss", "761": " inv", "762": " know", "763": " We", "764": " see", "765": "ments", "766": "ting", "767": " add", "768": ",\"", "769": "ced", "770": "old", "771": " ind", "772": " sec", "773": "fore", "774": " every", "775": "uch", "776": "urn", "777": " 5", "778": " make", "779": " supp", "780": "pect", "781": "ock", "782": " em", "783": " these", "784": " Un", "785": "oll", "786": "ject", "787": " where", "788": "In", "789": "ational", "790": "vern", "791": "xt", "792": " bu", "793": " look", "794": "Th", "795": " And", "796": "oss", "797": " don", "798": "ump", "799": " ev", "800": " way", "801": "ating", "802": " right", "803": " being", "804": " rem", "805": "ily", "806": "ng", "807": " may", "808": "row", "809": "lect", "810": " then", "811": " many", "812": "iew", "813": " diff", "814": " rel", "815": " def", "816": "ason", "817": " But", "818": " call", "819": " [", "820": " Tr", "821": "ont", "822": " think", "823": "ied", "824": "ased", "825": " includ", "826": "les", "827": "aking", "828": "meric", "829": " reg", "830": ").", "831": " imp", "832": " through", "833": "rib", "834": "ath", "835": "ited", "836": " should", "837": " sy", "838": " say", "839": " fl", "840": " pres", "841": "uring", "842": " last", "843": " very", "844": "ell", "845": " those", "846": "ty", "847": "ower", "848": "other", "849": " much", "850": "ific", "851": "ities", "852": " state", "853": " This", "854": "tle", "855": "ss", "856": "ative", "857": " show", "858": "hen", "859": " br", "860": "arg", "861": " well", "862": "oth", "863": " Wh", "864": " ph", "865": "--", "866": " count", "867": " does", "868": "als", "869": "und", "870": " own", "871": " down", "872": " end", "873": "arly", "874": " bel", "875": "ics", "876": " 200", "877": " use", "878": " ass", "879": "ange", "880": "ts", "881": " Americ", "882": " long", "883": "ters", "884": "ince", "885": " before", "886": "omet", "887": "gr", "888": "ward", "889": " mon", "890": " govern", "891": "ible", "892": " start", "893": " report", "894": "up", "895": " ke", "896": "ues", "897": " New", "898": " fin", "899": " team", "900": "ble", "901": "ife", "902": " made", "903": "olog", "904": "),", "905": "ener", "906": " such", "907": "ren", "908": "oun", "909": "com", "910": "ix", "911": "erson", "912": "\u2014", "913": " sm", "914": "lp", "915": " going", "916": "ility", "917": "ek", "918": "ism", "919": " world", "920": "ful", "921": "ually", "922": "ists", "923": " stud", "924": " good", "925": " ac", "926": "tain", "927": "It", "928": " sub", "929": " eff", "930": " sur", "931": " against", "932": " game", "933": "its", "934": " set", "935": "ork", "936": " 6", "937": " gu", "938": " point", "939": " ent", "940": "ys", "941": "gan", "942": "ars", "943": "stem", "944": "li", "945": " prov", "946": " still", "947": "roup", "948": " while", "949": " help", "950": "illion", "951": " lead", "952": "ween", "953": " min", "954": "ax", "955": "ef", "956": "ank", "957": "ms", "958": "alk", "959": " ob", "960": "imes", "961": "cy", "962": " says", "963": " produ", "964": " gr", "965": " inst", "966": " inter", "967": " str", "968": "cess", "969": " sim", "970": "self", "971": " conf", "972": "io", "973": " col", "974": " take", "975": " same", "976": "ures", "977": " though", "978": "arch", "979": " between", "980": " differe", "981": " cr", "982": "ever", "983": "ollow", "984": " offic", "985": "uss", "986": "ool", "987": " disc", "988": "land", "989": "ah", "990": "ution", "991": " op", "992": "read", "993": "air", "994": " high", "995": " ed", "996": " num", "997": " sign", "998": " law", "999": "way", "1000": " Re", "1001": " government", "1002": "gg", "1003": "ner", "1004": "hip", "1005": "led", "1006": "ames", "1007": "atch", "1008": "hes", "1009": "any", "1010": "cent", "1011": " ter", "1012": " somet", "1013": "ted", "1014": " ref", "1015": "velop", "1016": "We", "1017": " trans", "1018": " ins", "1019": "ten", "1020": " run", "1021": " ser", "1022": " found", "1023": " around", "1024": "ives", "1025": " here", "1026": " three", "1027": "ave", "1028": " mem", "1029": "ather", "1030": " med", "1031": " real", "1032": "ouse", "1033": " used", "1034": " You", "1035": "ved", "1036": " 10", "1037": " exp", "1038": "az", "1039": " Ar", "1040": "cept", "1041": "oot", "1042": " system", "1043": "ci", "1044": " really", "1045": "ving", "1046": " mod", "1047": "con", "1048": " support", "1049": " group", "1050": "cer", "1051": " cour", "1052": " 7", "1053": "ets", "1054": "ale", "1055": "ins", "1056": " hand", "1057": " ret", "1058": " public", "1059": " Le", "1060": " spec", "1061": "pr", "1062": "ying", "1063": " great", "1064": "ense", "1065": " car", "1066": " ext", "1067": "ton", "1068": " cur", "1069": " fam", "1070": "irect", "1071": "alth", "1072": " Com", "1073": ".[", "1074": " happ", "1075": " wom", "1076": " fact", "1077": " Trump", "1078": " exper", "1079": " Is", "1080": " fr", "1081": " They", "1082": "ph", "1083": " both", "1084": " cap", "1085": " day", "1086": " find", "1087": " read", "1088": " lit", "1089": " Al", "1090": "ular", "1091": "ines", "1092": "oh", "1093": " rep", "1094": "uth", "1095": " det", "1096": "ices", "1097": " sl", "1098": " during", "1099": "ered", "1100": " Sh", "1101": " As", "1102": " cre", "1103": " big", "1104": "the", "1105": "min", "1106": " month", "1107": "ision", "1108": " serv", "1109": " develop", "1110": "akes", "1111": " person", "1112": " 8", "1113": " follow", "1114": " iss", "1115": " told", "1116": " Cl", "1117": " since", "1118": " 0", "1119": "ically", "1120": "ex", "1121": "ared", "1122": "med", "1123": "ages", "1124": " week", "1125": " war", "1126": " few", "1127": "ivers", "1128": "orth", "1129": " cent", "1130": "ording", "1131": " leg", "1132": " polit", "1133": "aj", "1134": "get", "1135": "ves", "1136": "ash", "1137": " expl", "1138": " lot", "1139": " belie", "1140": " Se", "1141": " too", "1142": " gener", "1143": "ric", "1144": " opp", "1145": "der", "1146": " 9", "1147": "rent", "1148": "ata", "1149": "Wh", "1150": " contin", "1151": "iet", "1152": " requ", "1153": " prot", "1154": " fil", "1155": "anc", "1156": "bers", "1157": "ention", "1158": "ness", "1159": " put", "1160": " cle", "1161": "ized", "1162": " resp", "1163": " If", "1164": " another", "1165": " inf", "1166": " something", "1167": "chool", "1168": " different", "1169": " cor", "1170": "20", "1171": " loc", "1172": " De", "1173": "ute", "1174": " invest", "1175": " soc", "1176": " che", "1177": "uc", "1178": " power", "1179": " '", "1180": " Fr", "1181": " commun", "1182": " pass", "1183": " art", "1184": " plan", "1185": " life", "1186": "ience", "1187": " head", "1188": "ody", "1189": " things", "1190": " rele", "1191": "ned", "1192": " far", "1193": "thing", "1194": "ox", "1195": " met", "1196": " poss", "1197": " vot", "1198": "ross", "1199": "erest", "1200": " camp", "1201": "This", "1202": "arge", "1203": "ier", "1204": "view", "1205": "ants", "1206": " might", "1207": " ask", "1208": "ize", "1209": " dep", "1210": " each", "1211": "iness", "1212": " never", "1213": " child", "1214": " next", "1215": "ik", "1216": "ield", "1217": " second", "1218": " quest", "1219": " .", "1220": " An", "1221": " adv", "1222": " mark", "1223": " bus", "1224": " For", "1225": " dem", "1226": " come", "1227": " got", "1228": "tt", "1229": " \u2018", "1230": " best", "1231": "ient", "1232": " allow", "1233": " open", "1234": "ital", "1235": " That", "1236": " seem", "1237": " US", "1238": "nce", "1239": "ple", "1240": " feel", "1241": "rat", "1242": " Pro", "1243": " post", "1244": " percent", "1245": "gram", "1246": " pri", "1247": "ug", "1248": " home", "1249": "cl", "1250": " direct", "1251": " dist", "1252": "ired", "1253": " incre", "1254": "son", "1255": " contro", "1256": " Rep", "1257": "orn", "1258": "less", "1259": "osed", "1260": " result", "1261": " hard", "1262": " care", "1263": " comple", "1264": "ately", "1265": " place", "1266": " import", "1267": " without", "1268": " av", "1269": " million", "1270": "chn", "1271": " including", "1272": " inform", "1273": " hum", "1274": "conom", "1275": " ide", "1276": " proble", "1277": "ama", "1278": " top", "1279": " build", "1280": " number", "1281": "gy", "1282": " Bl", "1283": "aim", "1284": " country", "1285": "oney", "1286": "ret", "1287": " stand", "1288": "ably", "1289": "ral", "1290": " gl", "1291": "uro", "1292": "riend", "1293": "ished", "1294": " four", "1295": " el", "1296": " better", "1297": "co", "1298": "ways", "1299": " partic", "1300": " recent", "1301": " tri", "1302": " mov", "1303": "But", "1304": " let", "1305": " interest", "1306": "ration", "1307": " less", "1308": " little", "1309": " turn", "1310": "ead", "1311": " season", "1312": " appro", "1313": " beh", "1314": "ling", "1315": " bro", "1316": "line", "1317": " called", "1318": "10", "1319": "ract", "1320": " mil", "1321": "ised", "1322": " case", "1323": "app", "1324": " dr", "1325": " attack", "1326": " Ind", "1327": " rest", "1328": " pop", "1329": "ency", "1330": " ann", "1331": " left", "1332": " move", "1333": " keep", "1334": " Z", "1335": " There", "1336": "ode", "1337": " didn", "1338": "ina", "1339": " full", "1340": "ering", "1341": "be", "1342": " main", "1343": " fun", "1344": "ajor", "1345": "inal", "1346": "me", "1347": " effect", "1348": " prev", "1349": " test", "1350": "leg", "1351": " program", "1352": " using", "1353": "ature", "1354": "to", "1355": " pay", "1356": " val", "1357": " ear", "1358": "__", "1359": " police", "1360": " writ", "1361": " form", "1362": " econom", "1363": " pos", "1364": " news", "1365": " data", "1366": " win", "1367": " American", "1368": " sit", "1369": " level", "1370": " char", "1371": "ains", "1372": "iving", "1373": "ined", "1374": "ready", "1375": " small", "1376": "uck", "1377": " list", "1378": "He", "1379": " school", "1380": "ology", "1381": "rap", "1382": "mit", "1383": "ided", "1384": "'re", "1385": "ger", "1386": "ploy", "1387": " eas", "1388": " process", "1389": "ird", "1390": " women", "1391": " change", "1392": "reen", "1393": " hist", "1394": " current", "1395": " prom", "1396": "ians", "1397": " rece", "1398": " dri", "1399": " company", "1400": " president", "1401": " So", "1402": "used", "1403": "ohn", "1404": " already", "1405": " mat", "1406": "ruct", "1407": " ty", "1408": " United", "1409": " =", "1410": "wit", "1411": " bre", "1412": " why", "1413": " unt", "1414": " always", "1415": " sol", "1416": " expect", "1417": " money", "1418": " later", "1419": " How", "1420": " Ob", "1421": " techn", "1422": " business", "1423": "ron", "1424": " book", "1425": " Q", "1426": " official", "1427": "stand", "1428": " class", "1429": " thing", "1430": " project", "1431": " bo", "1432": " job", "1433": "ases", "1434": "iversity", "1435": " claim", "1436": " organ", "1437": " Ph", "1438": " She", "1439": "aign", "1440": " talk", "1441": "ards", "1442": " information", "1443": "aff", "1444": " design", "1445": " prof", "1446": " able", "1447": " Be", "1448": " chang", "1449": " major", "1450": " story", "1451": "iven", "1452": "lection", "1453": " health", "1454": " rese", "1455": "ertain", "1456": " --", "1457": " past", "1458": " vis", "1459": "here", "1460": "urs", "1461": " free", "1462": " Ad", "1463": "outh", "1464": "ption", "1465": " Can", "1466": " away", "1467": " oper", "1468": "ior", "1469": " city", "1470": " must", "1471": "sc", "1472": "rist", "1473": "ural", "1474": " 18", "1475": "ample", "1476": " happen", "1477": " important", "1478": "uthor", "1479": " sk", "1480": "urity", "1481": "acy", "1482": " pat", "1483": "ury", "1484": " kill", "1485": "ured", "1486": " old", "1487": " doesn", "1488": "ending", "1489": " least", "1490": " est", "1491": " grow", "1492": "ission", "1493": "ained", "1494": " var", "1495": "St", "1496": " cost", "1497": " tell", "1498": "ides", "1499": "\u2026", "1500": " men", "1501": " edit", "1502": "ider", "1503": " 12", "1504": "els", "1505": "side", "1506": " hop", "1507": "ney", "1508": " days", "1509": " came", "1510": " Go", "1511": " stre", "1512": " campaign", "1513": " const", "1514": " enough", "1515": " aff", "1516": "resident", "1517": " Mar", "1518": " kind", "1519": " making", "1520": "ccess", "1521": "ern", "1522": " view", "1523": " Sp", "1524": "oad", "1525": " mar", "1526": "50", "1527": " large", "1528": " family", "1529": " record", "1530": " friend", "1531": "ush", "1532": " elect", "1533": " tax", "1534": "eral", "1535": " polic", "1536": "ley", "1537": "by", "1538": "ality", "1539": "ror", "1540": "As", "1541": "ising", "1542": "ator", "1543": "pped", "1544": " until", "1545": "ional", "1546": "ified", "1547": "----", "1548": "ived", "1549": " vide", "1550": " political", "1551": "ee", "1552": " deal", "1553": "arent", "1554": "ries", "1555": "alf", "1556": "augh", "1557": " working", "1558": " line", "1559": "If", "1560": "ued", "1561": " took", "1562": " Republic", "1563": "bs", "1564": " deb", "1565": " John", "1566": " ve", "1567": "aining", "1568": " fore", "1569": "ister", "1570": " air", "1571": "ane", "1572": " es", "1573": " become", "1574": " actually", "1575": " intern", "1576": "ocrat", "1577": "iol", "1578": " mean", "1579": "ember", "1580": "aps", "1581": "work", "1582": "ony", "1583": " Sc", "1584": " fund", "1585": "ware", "1586": " Pl", "1587": "ott", "1588": " often", "1589": "11", "1590": " former", "1591": " give", "1592": "ann", "1593": " ever", "1594": " Euro", "1595": " won", "1596": "most", "1597": "oint", "1598": " according", "1599": "eng", "1600": "year", "1601": "wh", "1602": " games", "1603": "aring", "1604": " human", "1605": " word", "1606": " bas", "1607": "ison", "1608": "ization", "1609": " bit", "1610": " order", "1611": " return", "1612": " times", "1613": " name", "1614": " Russ", "1615": "gin", "1616": " Dem", "1617": "19", "1618": " dev", "1619": " All", "1620": " sever", "1621": "ither", "1622": "uture", "1623": "iqu", "1624": " Mc", "1625": "ER", "1626": "for", "1627": " par", "1628": "icle", "1629": " Sy", "1630": " wr", "1631": " perform", "1632": " charac", "1633": " Or", "1634": "There", "1635": " market", "1636": " sing", "1637": "raft", "1638": " Con", "1639": " fac", "1640": " doing", "1641": "idd", "1642": " At", "1643": " 199", "1644": "rop", "1645": " night", "1646": "mber", "1647": " May", "1648": " ra", "1649": " appear", "1650": " lear", "1651": "ched", "1652": "aken", "1653": " players", "1654": "sh", "1655": " ,", "1656": " today", "1657": " la", "1658": " 15", "1659": " having", "1660": " seen", "1661": " early", "1662": " event", "1663": " social", "1664": "//", "1665": " pot", "1666": " President", "1667": " media", "1668": " children", "1669": " whether", "1670": " crit", "1671": "idence", "1672": " control", "1673": " several", "1674": " meet", "1675": "ats", "1676": " sure", "1677": " went", "1678": " press", "1679": " five", "1680": "iously", "1681": "artment", "1682": "ene", "1683": " prop", "1684": " young", "1685": " milit", "1686": "ories", "1687": " equ", "1688": " question", "1689": "ium", "1690": " likely", "1691": "une", "1692": " occ", "1693": "ands", "1694": " members", "1695": " York", "1696": " eng", "1697": " certain", "1698": "br", "1699": " water", "1700": "ots", "1701": "vert", "1702": "enn", "1703": " example", "1704": " done", "1705": " Col", "1706": " vers", "1707": " arg", "1708": " side", "1709": " invol", "1710": "let", "1711": " short", "1712": " States", "1713": "ended", "1714": " success", "1715": " ant", "1716": " along", "1717": " Europe", "1718": " Mr", "1719": "ential", "1720": " hour", "1721": "ball", "1722": "ially", "1723": "And", "1724": "iver", "1725": " months", "1726": " 11", "1727": "empt", "1728": "lf", "1729": " desc", "1730": " within", "1731": " sex", "1732": " course", "1733": "ague", "1734": " fight", "1735": "uff", "1736": "ubl", "1737": "ster", "1738": " once", "1739": " Obama", "1740": " among", "1741": "ulation", "1742": "imate", "1743": "urch", "1744": " activ", "1745": "rew", "1746": "nect", "1747": " future", "1748": "iting", "1749": " investig", "1750": " understand", "1751": " possible", "1752": "ortun", "1753": " concer", "1754": " cho", "1755": "ones", "1756": " On", "1757": " ]", "1758": " Br", "1759": " means", "1760": "ggest", "1761": " problem", "1762": "my", "1763": " author", "1764": " thought", "1765": "itive", "1766": " Car", "1767": " priv", "1768": " viol", "1769": "ourn", "1770": " avail", "1771": " No", "1772": " product", "1773": "ivid", "1774": "ler", "1775": " known", "1776": "oci", "1777": " non", "1778": "gress", "1779": " yet", "1780": " hold", "1781": " across", "1782": " protect", "1783": "ald", "1784": " local", "1785": "12", "1786": " community", "1787": " i", "1788": " fail", "1789": "inc", "1790": " reason", "1791": " When", "1792": " suggest", "1793": " State", "1794": " Te", "1795": " makes", "1796": " orig", "1797": " &", "1798": "\u2013", "1799": "verage", "1800": "not", "1801": "por", "1802": " 2016", "1803": "back", "1804": " asked", "1805": "book", "1806": "You", "1807": "orld", "1808": "ederal", "1809": " given", "1810": "aged", "1811": " reported", "1812": "ensive", "1813": " mus", "1814": "iber", "1815": " others", "1816": " strong", "1817": " believe", "1818": " prob", "1819": " video", "1820": " getting", "1821": " ben", "1822": " House", "1823": " light", "1824": "ances", "1825": "ober", "1826": " announ", "1827": " 30", "1828": "itions", "1829": " ident", "1830": "ored", "1831": " ca", "1832": " sent", "1833": " cut", "1834": "iron", "1835": " lim", "1836": " Co", "1837": "iety", "1838": " Christ", "1839": "30", "1840": " University", "1841": " cond", "1842": "urther", "1843": " sour", "1844": " creat", "1845": "ams", "1846": "ashing", "1847": "'ve", "1848": "ament", "1849": " net", "1850": " bat", "1851": " X", "1852": "rest", "1853": " national", "1854": " started", "1855": " saf", "1856": "arm", "1857": " close", "1858": ".,", "1859": " land", "1860": " 2015", "1861": " available", "1862": "For", "1863": " death", "1864": "aster", "1865": " hig", "1866": " indust", "1867": " based", "1868": "of", "1869": " issue", "1870": "resent", "1871": " love", "1872": " Democrat", "1873": " low", "1874": " account", "1875": "use", "1876": " following", "1877": " history", "1878": " mom", "1879": " employ", "1880": " Cent", "1881": " Min", "1882": "selves", "1883": " ago", "1884": "orts", "1885": "ability", "1886": " comes", "1887": "eb", "1888": " trying", "1889": " party", "1890": "ument", "1891": " #", "1892": " almost", "1893": " Am", "1894": "uly", "1895": " series", "1896": "utes", "1897": "gether", "1898": " together", "1899": "pro", "1900": "AT", "1901": " idea", "1902": " America", "1903": "ination", "1904": "hers", "1905": " foc", "1906": " access", "1907": " Fl", "1908": "ief", "1909": "ilar", "1910": "reed", "1911": "ails", "1912": " isn", "1913": " commit", "1914": "itional", "1915": " clear", "1916": " Sen", "1917": " 16", "1918": " What", "1919": " trad", "1920": " pract", "1921": " added", "1922": " impro", "1923": "erence", "1924": "ring", "1925": " experience", "1926": "though", "1927": " One", "1928": " film", "1929": "15", "1930": "af", "1931": " half", "1932": "ged", "1933": " Bro", "1934": "witter", "1935": " 2014", "1936": " hit", "1937": "ustom", "1938": "unch", "1939": " rul", "1940": " looking", "1941": "ividual", "1942": "ograp", "1943": " six", "1944": "rael", "1945": " anything", "1946": "rict", "1947": " live", "1948": " anal", "1949": " complete", "1950": " area", "1951": "inton", "1952": "erman", "1953": "minist", "1954": " fav", "1955": " ris", "1956": " miss", "1957": "ai", "1958": " Comm", "1959": " Ex", "1960": " present", "1961": " saying", "1962": "ote", "1963": "IN", "1964": "nes", "1965": "raw", "1966": "aid", "1967": "rug", "1968": " bad", "1969": " Canad", "1970": " vict", "1971": "ows", "1972": "cially", "1973": " bill", "1974": "uge", "1975": " taken", "1976": "ert", "1977": " Pr", "1978": " mor", "1979": " court", "1980": " entire", "1981": "ators", "1982": " compet", "1983": "ev", "1984": " Eng", "1985": " phot", "1986": " try", "1987": " behind", "1988": " aut", "1989": "'m", "1990": " To", "1991": "play", "1992": " tre", "1993": "What", "1994": "wards", "1995": "ien", "1996": " 14", "1997": " z", "1998": " near", "1999": " er", "2000": "osp", "2001": " mult", "2002": " Pol", "2003": " military", "2004": " security", "2005": "sy", "2006": " face", "2007": " proper", "2008": " discuss", "2009": " |", "2010": " rather", "2011": " individual", "2012": " tot", "2013": " threat", "2014": " Don", "2015": " single", "2016": " study", "2017": " mind", "2018": " War", "2019": " Brit", "2020": " quick", "2021": " Af", "2022": "ttp", "2023": " ", "2024": " publ", "2025": "atic", "2026": "amed", "2027": " wanted", "2028": "irc", "2029": " fall", "2030": " Sec", "2031": " North", "2032": " mess", "2033": "aper", "2034": "An", "2035": "par", "2036": " policy", "2037": "off", "2038": "ris", "2039": "ales", "2040": " Man", "2041": " someone", "2042": "lement", "2043": " food", "2044": "ids", "2045": " sum", "2046": "lling", "2047": "On", "2048": " black", "2049": " /", "2050": " cult", "2051": " special", "2052": "ON", "2053": " bring", "2054": " redu", "2055": " Gr", "2056": " player", "2057": " 17", "2058": " comb", "2059": " key", "2060": "ply", "2061": " attempt", "2062": " compan", "2063": " 13", "2064": " Dep", "2065": ".)", "2066": "When", "2067": " taking", "2068": " Bar", "2069": " National", "2070": "ify", "2071": " foot", "2072": "16", "2073": "**", "2074": "olution", "2075": "elt", "2076": "viron", "2077": " else", "2078": "dd", "2079": " body", "2080": " pret", "2081": " space", "2082": " Cal", "2083": " probably", "2084": "rote", "2085": "go", "2086": "://", "2087": "ashington", "2088": " nothing", "2089": " front", "2090": "RE", "2091": " cou", "2092": "icult", "2093": " World", "2094": " Israel", "2095": " research", "2096": "ches", "2097": " connect", "2098": "14", "2099": "over", "2100": " coming", "2101": " Im", "2102": " sw", "2103": "yn", "2104": " Clinton", "2105": " City", "2106": "ming", "2107": " points", "2108": " however", "2109": " describ", "2110": " jo", "2111": "cing", "2112": " 100", "2113": "ault", "2114": "reme", "2115": " similar", "2116": " benef", "2117": " :", "2118": " either", "2119": "lier", "2120": " signific", "2121": "ully", "2122": " decision", "2123": " coun", "2124": "aces", "2125": "So", "2126": " exist", "2127": " Har", "2128": " mass", "2129": " Aust", "2130": "ana", "2131": " sus", "2132": " targ", "2133": "That", "2134": "mb", "2135": "IS", "2136": " imm", "2137": " feat", "2138": " conv", "2139": "irl", "2140": " house", "2141": " enc", "2142": " rights", "2143": " Su", "2144": "asing", "2145": "AN", "2146": " wa", "2147": " further", "2148": "ww", "2149": "ung", "2150": " chall", "2151": " doc", "2152": " create", "2153": " fire", "2154": " wrote", "2155": "sw", "2156": " 2013", "2157": " ban", "2158": " service", "2159": "rodu", "2160": " fig", "2161": " third", "2162": " repl", "2163": " pick", "2164": " stop", "2165": "now", "2166": " compl", "2167": " With", "2168": "ively", "2169": " begin", "2170": " field", "2171": " issues", "2172": "ape", "2173": " whole", "2174": " relations", "2175": "pping", "2176": " step", "2177": " super", "2178": "ried", "2179": " seems", "2180": " meas", "2181": " everything", "2182": "ently", "2183": " cand", "2184": "pecially", "2185": "amer", "2186": "13", "2187": "ran", "2188": " companies", "2189": " Jan", "2190": " exec", "2191": " federal", "2192": " tra", "2193": " ey", "2194": "pite", "2195": " room", "2196": " Washington", "2197": " Gu", "2198": " due", "2199": " watch", "2200": "aul", "2201": "ilt", "2202": " lab", "2203": " Ge", "2204": " 2012", "2205": "uation", "2206": " leaders", "2207": " sound", "2208": "oon", "2209": "head", "2210": " infl", "2211": "ibility", "2212": " states", "2213": " self", "2214": " However", "2215": " role", "2216": "ivil", "2217": "iday", "2218": " stri", "2219": "att", "2220": "Ch", "2221": " custom", "2222": " officials", "2223": " released", "2224": "eal", "2225": " dam", "2226": " began", "2227": " Dav", "2228": "ery", "2229": " students", "2230": " App", "2231": " character", "2232": " position", "2233": " opt", "2234": "obal", "2235": " South", "2236": " Inst", "2237": " matter", "2238": " outside", "2239": " final", "2240": "ender", "2241": " ener", "2242": " dou", "2243": " 2017", "2244": " statement", "2245": "ades", "2246": " himself", "2247": " treat", "2248": "\u00e9", "2249": " break", "2250": " development", "2251": "lim", "2252": "like", "2253": " provide", "2254": "sec", "2255": " stat", "2256": "vironment", "2257": " init", "2258": " above", "2259": " itself", "2260": " amount", "2261": " di", "2262": " Part", "2263": " )", "2264": " hours", "2265": " action", "2266": " represent", "2267": " themselves", "2268": " gun", "2269": " office", "2270": " continue", "2271": " 25", "2272": " became", "2273": "iod", "2274": " Intern", "2275": " general", "2276": " specific", "2277": " address", "2278": " neg", "2279": " countries", "2280": "aced", "2281": " Ass", "2282": "reg", "2283": "lish", "2284": " 198", "2285": " larg", "2286": " simply", "2287": " true", "2288": "arter", "2289": "ask", "2290": "ograph", "2291": " wasn", "2292": " Res", "2293": "'ll", "2294": " significant", "2295": "umb", "2296": "acebook", "2297": "17", "2298": " ground", "2299": "oid", "2300": "ogn", "2301": " interview", "2302": " running", "2303": " Just", "2304": "ili", "2305": " difficult", "2306": " bar", "2307": " rad", "2308": " evidence", "2309": " Ed", "2310": "BC", "2311": "ream", "2312": " administ", "2313": " profess", "2314": " version", "2315": " needs", "2316": " cop", "2317": " agree", "2318": "angu", "2319": "ogle", "2320": " everyone", "2321": " drug", "2322": " typ", "2323": " groups", "2324": "eks", "2325": "iddle", "2326": " respons", "2327": " building", "2328": " ball", "2329": " dom", "2330": " woman", "2331": " shows", "2332": " China", "2333": "lam", "2334": "right", "2335": " music", "2336": " common", "2337": " German", "2338": " lat", "2339": " dest", "2340": " needed", "2341": " inj", "2342": " tem", "2343": "light", "2344": " below", "2345": "AR", "2346": "ift", "2347": " exc", "2348": " Med", "2349": " release", "2350": "ournal", "2351": " saw", "2352": "18", "2353": " deep", "2354": " pretty", "2355": "ribut", "2356": " include", "2357": " quite", "2358": " played", "2359": " mot", "2360": "body", "2361": " industry", "2362": " Ab", "2363": " ap", "2364": " sense", "2365": " energy", "2366": " playing", "2367": " candid", "2368": " mag", "2369": " His", "2370": " phys", "2371": " 50", "2372": "ival", "2373": " gen", "2374": " white", "2375": "isc", "2376": " legal", "2377": "atur", "2378": "yle", "2379": " late", "2380": " friends", "2381": " charg", "2382": " alleg", "2383": "AS", "2384": "How", "2385": " After", "2386": "where", "2387": " instead", "2388": " abs", "2389": " lost", "2390": "bo", "2391": " West", "2392": " especially", "2393": " value", "2394": " billion", "2395": " red", "2396": "osing", "2397": " Mus", "2398": " hom", "2399": "lev", "2400": " host", "2401": "oring", "2402": " anim", "2403": "istic", "2404": " ple", "2405": " forward", "2406": "ager", "2407": "time", "2408": " recently", "2409": " object", "2410": " track", "2411": "ccording", "2412": " News", "2413": "omm", "2414": " Not", "2415": " weeks", "2416": " election", "2417": "epend", "2418": " vote", "2419": "ique", "2420": " jud", "2421": " suff", "2422": " White", "2423": " deter", "2424": "irt", "2425": " Twitter", "2426": " changes", "2427": "lt", "2428": " Oct", "2429": " period", "2430": " opportun", "2431": "medi", "2432": "eed", "2433": "ript", "2434": " lo", "2435": " longer", "2436": "ached", "2437": " pain", "2438": "arc", "2439": " ep", "2440": "oke", "2441": " site", "2442": " accept", "2443": "oe", "2444": "hod", "2445": " soon", "2446": " shoot", "2447": " Will", "2448": " moment", "2449": " hope", "2450": " economic", "2451": "oph", "2452": " Cong", "2453": " pie", "2454": " decl", "2455": "irm", "2456": " check", "2457": " wrong", "2458": " 24", "2459": " block", "2460": " consum", "2461": " Sept", "2462": " relig", "2463": " tit", "2464": " {", "2465": " My", "2466": " Department", "2467": "duct", "2468": "____", "2469": "onse", "2470": " potential", "2471": "25", "2472": " higher", "2473": " circ", "2474": "lege", "2475": " works", "2476": " consider", "2477": "ners", "2478": "ole", "2479": " focus", "2480": "ancial", "2481": " share", "2482": "ns", "2483": " cred", "2484": " March", "2485": " educ", "2486": "ij", "2487": " held", "2488": "alt", "2489": "cial", "2490": "key", "2491": "iding", "2492": " online", "2493": " webs", "2494": " stay", "2495": " walk", "2496": " led", "2497": " Dr", "2498": "ularly", "2499": "overed", "2500": " reve", "2501": " words", "2502": " parent", "2503": " pred", "2504": "==", "2505": " stru", "2506": " These", "2507": " results", "2508": " +", "2509": " Republican", "2510": " risk", "2511": " Syri", "2512": "lear", "2513": " review", "2514": " rev", "2515": "icro", "2516": " sold", "2517": " laws", "2518": "fect", "2519": " contract", "2520": " code", "2521": " function", "2522": "They", "2523": "aut", "2524": " wind", "2525": " ce", "2526": "cil", "2527": " total", "2528": " article", "2529": " Aug", "2530": " aud", "2531": " applic", "2532": " Me", "2533": " services", "2534": "uary", "2535": " minutes", "2536": " personal", "2537": " Mich", "2538": "asons", "2539": "put", "2540": "ients", "2541": "urd", "2542": " anyone", "2543": " age", "2544": "ilities", "2545": "anger", "2546": " June", "2547": "itution", "2548": " prim", "2549": " favor", "2550": " rate", "2551": "Ad", "2552": "haps", "2553": " target", "2554": " answ", "2555": "ule", "2556": "fer", "2557": " popular", "2558": "ateg", "2559": "ES", "2560": " Ste", "2561": " upd", "2562": " den", "2563": "apan", "2564": " express", "2565": "ham", "2566": " earlier", "2567": " necess", "2568": " hy", "2569": " dead", "2570": "che", "2571": " vol", "2572": " Pe", "2573": "pril", "2574": "val", "2575": " comput", "2576": " respect", "2577": " 2011", "2578": "aging", "2579": " technology", "2580": "uel", "2581": " goal", "2582": " expected", "2583": " created", "2584": " environment", "2585": " Par", "2586": "ends", "2587": " problems", "2588": " surpr", "2589": " base", "2590": "ude", "2591": "Ph", "2592": " received", "2593": "reet", "2594": " port", "2595": "tee", "2596": " Do", "2597": " July", "2598": "Al", "2599": " scient", "2600": "na", "2601": " ways", "2602": " increase", "2603": " easy", "2604": " anti", "2605": " comment", "2606": "iple", "2607": " force", "2608": " shot", "2609": "ray", "2610": " private", "2611": " Sm", "2612": "isl", "2613": " questions", "2614": " cannot", "2615": " <", "2616": " announced", "2617": "eter", "2618": "action", "2619": " pack", "2620": "bit", "2621": " Mond", "2622": " God", "2623": " langu", "2624": " impact", "2625": " Congress", "2626": " pur", "2627": "aterial", "2628": "ples", "2629": "atives", "2630": "hern", "2631": "aving", "2632": " Facebook", "2633": " involved", "2634": " En", "2635": "ills", "2636": "omb", "2637": " div", "2638": "lex", "2639": " et", "2640": "hood", "2641": "itiz", "2642": " speak", "2643": " exact", "2644": "60", "2645": "ctor", "2646": " type", "2647": " model", "2648": "onst", "2649": " execut", "2650": " nearly", "2651": "ires", "2652": " Austral", "2653": "ourt", "2654": " civil", "2655": "uesday", "2656": " relationship", "2657": " terror", "2658": " staff", "2659": " sen", "2660": "ees", "2661": "okes", "2662": "To", "2663": " 197", "2664": " cases", "2665": " Friday", "2666": " inside", "2667": " original", "2668": "rem", "2669": " content", "2670": " leave", "2671": " response", "2672": "lled", "2673": "EN", "2674": " Red", "2675": " capt", "2676": " fans", "2677": " Google", "2678": "", "2679": " coll", "2680": "ech", "2681": " ur", "2682": " April", "2683": " international", "2684": " Count", "2685": " arrest", "2686": "At", "2687": " average", "2688": "ging", "2689": "rel", "2690": " broad", "2691": " living", "2692": " heart", "2693": "ky", "2694": "oto", "2695": "cast", "2696": " Monday", "2697": " reports", "2698": " worth", "2699": "bor", "2700": " killed", "2701": " nation", "2702": "ellig", "2703": "atural", "2704": "ips", "2705": " cal", "2706": " becom", "2707": "mp", "2708": "ests", "2709": " worked", "2710": " users", "2711": " source", "2712": " soft", "2713": " immedi", "2714": " obs", "2715": " 2010", "2716": " subject", "2717": "joy", "2718": " Tuesday", "2719": " chance", "2720": " estab", "2721": " Pal", "2722": " respond", "2723": "ops", "2724": " club", "2725": " Americans", "2726": " Per", "2727": "OR", "2728": " cell", "2729": " global", "2730": " takes", "2731": "ael", "2732": " del", "2733": " ability", "2734": "ext", "2735": "rought", "2736": "ites", "2737": " oil", "2738": " weap", "2739": " Act", "2740": "mon", "2741": " associ", "2742": " terms", "2743": " workers", "2744": " price", "2745": "hel", "2746": "izing", "2747": " Japan", "2748": "osition", "2749": " director", "2750": "ological", "2751": "ises", "2752": " road", "2753": " tou", "2754": " published", "2755": " collect", "2756": " defin", "2757": " financial", "2758": " While", "2759": " Russia", "2760": " mid", "2761": " squ", "2762": " Wed", "2763": " decided", "2764": "rain", "2765": "ovember", "2766": " 40", "2767": " lack", "2768": " log", "2769": " Some", "2770": " phone", "2771": " mother", "2772": " gave", "2773": " buy", "2774": " girl", "2775": " store", "2776": " emer", "2777": " influ", "2778": " capital", "2779": " happened", "2780": " Now", "2781": " require", "2782": " Calif", "2783": " @", "2784": "clus", "2785": "200", "2786": " foreign", "2787": " fem", "2788": "\".", "2789": " goes", "2790": " currently", "2791": " situation", "2792": " Off", "2793": " San", "2794": " By", "2795": "based", "2796": "unt", "2797": "oved", "2798": "rown", "2799": " lives", "2800": " whose", "2801": " offer", "2802": " indic", "2803": " material", "2804": " tal", "2805": "ino", "2806": " Geor", "2807": "ought", "2808": " plans", "2809": " affect", "2810": "vertise", "2811": " Sund", "2812": "nesday", "2813": " member", "2814": " method", "2815": " arri", "2816": " particip", "2817": " January", "2818": "eg", "2819": "rect", "2820": " pict", "2821": " Ag", "2822": "ursday", "2823": "One", "2824": " Feb", "2825": " meeting", "2826": " recogn", "2827": " teams", "2828": " turned", "2829": "ruction", "2830": " bank", "2831": " Hill", "2832": "fully", "2833": " events", "2834": " network", "2835": " September", "2836": "order", "2837": "40", "2838": "ese", "2839": " simple", "2840": " introdu", "2841": " ill", "2842": " areas", "2843": " norm", "2844": " cy", "2845": "bl", "2846": " Cor", "2847": " regard", "2848": " Islam", "2849": " huge", "2850": " couple", "2851": " approach", "2852": " page", "2853": " performance", "2854": " TV", "2855": "--------", "2856": "oud", "2857": " career", "2858": " tool", "2859": " mis", "2860": " felt", "2861": "aur", "2862": " Gl", "2863": " November", "2864": " Afric", "2865": "\",", "2866": "ety", "2867": "apt", "2868": " ord", "2869": "load", "2870": " deli", "2871": " 21", "2872": " race", "2873": " email", "2874": " El", "2875": " quickly", "2876": "oor", "2877": " round", "2878": " hon", "2879": "aily", "2880": " David", "2881": " improve", "2882": " engine", "2883": " numbers", "2884": " victim", "2885": " Wednesday", "2886": " administration", "2887": " via", "2888": " Ang", "2889": "chie", "2890": "lin", "2891": " pull", "2892": "istan", "2893": " built", "2894": " http", "2895": "ened", "2896": " fre", "2897": "avy", "2898": " text", "2899": " loss", "2900": " pers", "2901": " Thursday", "2902": "ructure", "2903": " Paul", "2904": "ume", "2905": " father", "2906": " thous", "2907": " European", "2908": " economy", "2909": "iment", "2910": "AL", "2911": "ornia", "2912": "Sh", "2913": " production", "2914": " boy", "2915": " heard", "2916": " dig", "2917": "\u201d.", "2918": " match", "2919": " website", "2920": " enjoy", "2921": "down", "2922": " Court", "2923": " 22", "2924": " ..", "2925": " reveal", "2926": " allowed", "2927": " hands", "2928": " repe", "2929": " board", "2930": " spent", "2931": " trade", "2932": " wide", "2933": " October", "2934": " secret", "2935": "face", "2936": "cember", "2937": " lower", "2938": " Sch", "2939": " travel", "2940": " ste", "2941": " August", "2942": " cover", "2943": "atory", "2944": " included", "2945": "ights", "2946": " poll", "2947": " wants", "2948": "uses", "2949": " legisl", "2950": " town", "2951": " knew", "2952": " neigh", "2953": "orters", "2954": " behav", "2955": "iction", "2956": " British", "2957": " separ", "2958": "With", "2959": "estern", "2960": " Sunday", "2961": "\u00ad", "2962": " gets", "2963": " visit", "2964": " perfect", "2965": "ences", "2966": " Canada", "2967": "ctions", "2968": "anks", "2969": "ishing", "2970": "gest", "2971": " movement", "2972": "agement", "2973": "?\u201d", "2974": "ground", "2975": " tried", "2976": "ession", "2977": "raz", "2978": " bi", "2979": " cause", "2980": " forces", "2981": " fear", "2982": " ens", "2983": " attention", "2984": " particular", "2985": " Kore", "2986": ");", "2987": "After", "2988": "force", "2989": "ening", "2990": " }", "2991": " population", "2992": "ceed", "2993": " reach", "2994": " brought", "2995": " looks", "2996": "urning", "2997": " various", "2998": "ibly", "2999": " vo", "3000": "uk", "3001": "arily", "3002": " bud", "3003": " UK", "3004": " growth", "3005": "ma", "3006": " California", "3007": " mention", "3008": " previous", "3009": "aker", "3010": " Qu", "3011": "ED", "3012": "cle", "3013": " link", "3014": "'d", "3015": " morning", "3016": "field", "3017": " veh", "3018": " Russian", "3019": "undred", "3020": "AC", "3021": " 23", "3022": " fair", "3023": " fell", "3024": "hold", "3025": " training", "3026": "idered", "3027": "99", "3028": "alled", "3029": " progress", "3030": "yond", "3031": "iam", "3032": "sequ", "3033": " size", "3034": "cies", "3035": "US", "3036": " contact", "3037": "idents", "3038": " hot", "3039": " Cont", "3040": " December", "3041": " demand", "3042": " image", "3043": " Sw", "3044": " rac", "3045": " Black", "3046": " IS", "3047": "set", "3048": " song", "3049": "ledge", "3050": "][", "3051": "ze", "3052": " Post", "3053": "While", "3054": " leader", "3055": " hor", "3056": "oo", "3057": " Her", "3058": " citiz", "3059": "fl", "3060": "ecause", "3061": " rules", "3062": " ess", "3063": " liber", "3064": " prep", "3065": " search", "3066": "ification", "3067": "come", "3068": "IT", "3069": " Street", "3070": "inks", "3071": " latest", "3072": " strugg", "3073": " upon", "3074": " coach", "3075": " fast", "3076": "arth", "3077": " talking", "3078": "omp", "3079": "sych", "3080": " independ", "3081": "ondon", "3082": "OS", "3083": "uments", "3084": "iant", "3085": " speed", "3086": " Park", "3087": " wond", "3088": " features", "3089": " Senate", "3090": " addition", "3091": " Pat", "3092": "ges", "3093": " exam", "3094": " star", "3095": " reb", "3096": "Tr", "3097": " Jew", "3098": "ps", "3099": "icles", "3100": "elligence", "3101": "IC", "3102": "bed", "3103": " considered", "3104": "aries", "3105": " language", "3106": " Times", "3107": "22", "3108": " medical", "3109": "aturday", "3110": " Party", "3111": " levels", "3112": "raq", "3113": "ille", "3114": " slow", "3115": "imately", "3116": "aph", "3117": " County", "3118": " achie", "3119": " investigation", "3120": " und", "3121": "unk", "3122": " Center", "3123": " conduct", "3124": "vent", "3125": "eth", "3126": " mach", "3127": "ope", "3128": " card", "3129": " India", "3130": " sn", "3131": " sort", "3132": " critic", "3133": " King", "3134": "het", "3135": " ", "3136": " doll", "3137": " 2008", "3138": "ysis", "3139": "ha", "3140": "wo", "3141": "uf", "3142": "imin", "3143": " paper", "3144": " box", "3145": " Iran", "3146": "uit", "3147": "asc", "3148": " pen", "3149": " conserv", "3150": " prior", "3151": " Tex", "3152": " sexual", "3153": "pir", "3154": " systems", "3155": " parents", "3156": " jobs", "3157": " hear", "3158": " document", "3159": "atform", "3160": " spokes", "3161": "igr", "3162": " written", "3163": " sens", "3164": " increasing", "3165": " draw", "3166": " seven", "3167": " seek", "3168": "ani", "3169": "eared", "3170": "ruary", "3171": "idge", "3172": " prevent", "3173": " Muslim", "3174": " learn", "3175": " extreme", "3176": " effort", "3177": "OP", "3178": " serious", "3179": "rast", "3180": "ining", "3181": "tr", "3182": " son", "3183": "80", "3184": " completely", "3185": " inn", "3186": " screen", "3187": " Mark", "3188": " regul", "3189": " eight", "3190": "room", "3191": " range", "3192": "ources", "3193": " conc", "3194": " violence", "3195": "itch", "3196": "24", "3197": " message", "3198": " obv", "3199": " surve", "3200": " 2009", "3201": "She", "3202": " despite", "3203": " Iraq", "3204": " interesting", "3205": "reedom", "3206": "ico", "3207": " doub", "3208": " opportunity", "3209": " claims", "3210": "rench", "3211": " particularly", "3212": " Em", "3213": "eff", "3214": "anced", "3215": " extra", "3216": " answer", "3217": " Char", "3218": " society", "3219": " Rom", "3220": " majority", "3221": "abor", "3222": " journal", "3223": " London", "3224": " attacks", "3225": "erve", "3226": " guy", "3227": "ett", "3228": " exactly", "3229": " carry", "3230": "entially", "3231": " biggest", "3232": "aming", "3233": " Ke", "3234": "ux", "3235": " Donald", "3236": "illed", "3237": " climate", "3238": " cross", "3239": " required", "3240": " aren", "3241": " More", "3242": "ibr", "3243": "iers", "3244": "isions", "3245": " paid", "3246": " defense", "3247": " hundred", "3248": " experien", "3249": " modern", "3250": "ension", "3251": " practice", "3252": "erc", "3253": " East", "3254": " except", "3255": "ari", "3256": "vertisement", "3257": "lying", "3258": " Saturday", "3259": " quarter", "3260": "add", "3261": " officers", "3262": " natural", "3263": "oses", "3264": "inese", "3265": "AM", "3266": " remain", "3267": " science", "3268": "inally", "3269": " looked", "3270": "nces", "3271": " certainly", "3272": " ...", "3273": " histor", "3274": "uclear", "3275": " surv", "3276": " 27", "3277": "utions", "3278": " gas", "3279": " stories", "3280": " middle", "3281": " dro", "3282": " stuff", "3283": " lay", "3284": " table", "3285": " finally", "3286": " sometimes", "3287": " communic", "3288": " Net", "3289": " products", "3290": " Sand", "3291": " movie", "3292": "ospital", "3293": " rout", "3294": " convers", "3295": "aves", "3296": " imag", "3297": " leading", "3298": " McC", "3299": "ously", "3300": " aw", "3301": " Spe", "3302": "ny", "3303": " pan", "3304": " described", "3305": " ones", "3306": "pper", "3307": " details", "3308": " summer", "3309": " ult", "3310": " term", "3311": " user", "3312": " changed", "3313": " prison", "3314": " February", "3315": "hib", "3316": " blood", "3317": " quality", "3318": " starting", "3319": " showed", "3320": "icks", "3321": " giving", "3322": "uing", "3323": " occur", "3324": "akers", "3325": " provided", "3326": " named", "3327": "arr", "3328": " *", "3329": " remains", "3330": " costs", "3331": " TH", "3332": " region", "3333": "aught", "3334": "ida", "3335": " Soc", "3336": " fit", "3337": " poor", "3338": " danger", "3339": "yl", "3340": " path", "3341": " 26", "3342": "enge", "3343": " ", "3344": " Che", "3345": " Mor", "3346": " chief", "3347": " education", "3348": " multiple", "3349": " mob", "3350": " damage", "3351": " growing", "3352": "coin", "3353": " writing", "3354": " ment", "3355": "No", "3356": " Int", "3357": " parts", "3358": " continued", "3359": " demonst", "3360": " thinking", "3361": " assist", "3362": " comments", "3363": " safe", "3364": " Even", "3365": " purp", "3366": "inary", "3367": " fix", "3368": " 28", "3369": " maintain", "3370": " Tur", "3371": " ready", "3372": " Des", "3373": " Republicans", "3374": "FL", "3375": " write", "3376": " purch", "3377": " wouldn", "3378": "fort", "3379": " died", "3380": " increased", "3381": " Democratic", "3382": "23", "3383": " culture", "3384": "ago", "3385": " voters", "3386": " request", "3387": "pre", "3388": " implement", "3389": " file", "3390": " League", "3391": "....", "3392": " mill", "3393": " Gener", "3394": " Coun", "3395": "mitted", "3396": "ables", "3397": " efforts", "3398": " camer", "3399": "iminal", "3400": "oper", "3401": "aly", "3402": " spot", "3403": " calls", "3404": "ems", "3405": " hous", "3406": " perhaps", "3407": "arian", "3408": " alone", "3409": " guys", "3410": " reading", "3411": "ban", "3412": "zz", "3413": " towards", "3414": "de", "3415": " although", "3416": " cele", "3417": " standard", "3418": " usually", "3419": " consist", "3420": " James", "3421": "Im", "3422": " effects", "3423": " reality", "3424": " select", "3425": " directly", "3426": " platform", "3427": " avoid", "3428": " beyond", "3429": " Bill", "3430": " kids", "3431": " First", "3432": "using", "3433": "iles", "3434": " football", "3435": " speech", "3436": "icated", "3437": "sp", "3438": "oul", "3439": " Ne", "3440": " (@", "3441": " subst", "3442": " Chinese", "3443": " couldn", "3444": " unf", "3445": " Michael", "3446": " scene", "3447": " Texas", "3448": " throughout", "3449": " student", "3450": " includes", "3451": "ara", "3452": "itute", "3453": "rowd", "3454": "anch", "3455": " complex", "3456": " center", "3457": " immediately", "3458": " Cons", "3459": " cat", "3460": "ford", "3461": " challeng", "3462": " rob", "3463": " concept", "3464": "Re", "3465": " clos", "3466": " epis", "3467": " recomm", "3468": "egr", "3469": " wife", "3470": "BI", "3471": " choice", "3472": " ver", "3473": " tro", "3474": " additional", "3475": "urg", "3476": " il", "3477": "urt", "3478": "ston", "3479": " researc", "3480": " remember", "3481": "All", "3482": "wise", "3483": " Mon", "3484": " Jack", "3485": " sle", "3486": "hest", "3487": " \u2026", "3488": " gone", "3489": " Indian", "3490": "itor", "3491": " safety", "3492": " designed", "3493": " ten", "3494": " cast", "3495": " corpor", "3496": " Ser", "3497": " agency", "3498": "astic", "3499": " piece", "3500": "rupt", "3501": "aches", "3502": "omen", "3503": " ahead", "3504": "ports", "3505": " software", "3506": " battle", "3507": " debate", "3508": " officer", "3509": " figure", "3510": " brain", "3511": " opin", "3512": " toward", "3513": " Minister", "3514": "ilies", "3515": "Now", "3516": " swe", "3517": " sell", "3518": "ression", "3519": " counter", "3520": " thousands", "3521": " blog", "3522": " Bo", "3523": "agon", "3524": "icient", "3525": " option", "3526": " letter", "3527": " 60", "3528": "irth", "3529": " sil", "3530": "imum", "3531": " relative", "3532": "atever", "3533": " pressure", "3534": "men", "3535": " prec", "3536": " receive", "3537": "OT", "3538": "airs", "3539": " moved", "3540": "ampions", "3541": " stage", "3542": " ut", "3543": " passed", "3544": "adem", "3545": " appears", "3546": "roy", "3547": " Play", "3548": "olute", "3549": "oes", "3550": " Green", "3551": " II", "3552": " launch", "3553": " clean", "3554": " property", "3555": " meaning", "3556": " Serv", "3557": "just", "3558": " helped", "3559": " dog", "3560": " disapp", "3561": " twe", "3562": " rock", "3563": "new", "3564": " Apple", "3565": " Associ", "3566": " cris", "3567": "27", "3568": " dark", "3569": " >", "3570": "itation", "3571": " Then", "3572": " organization", "3573": " alleged", "3574": " drive", "3575": " score", "3576": " conditions", "3577": " sat", "3578": "berg", "3579": " touch", "3580": " suspect", "3581": "aughter", "3582": " moving", "3583": " date", "3584": " reasons", "3585": " tour", "3586": " Rich", "3587": " ign", "3588": "AD", "3589": "?\"", "3590": " Democrats", "3591": " park", "3592": " fan", "3593": "rief", "3594": "more", "3595": " nature", "3596": " difference", "3597": " deg", "3598": " command", "3599": " device", "3600": " happy", "3601": " myself", "3602": " maybe", "3603": " beginning", "3604": " Sim", "3605": "wood", "3606": " Super", "3607": " failed", "3608": " nom", "3609": " budget", "3610": "ivity", "3611": " encour", "3612": "amb", "3613": " characters", "3614": " nuclear", "3615": " computer", "3616": "chan", "3617": " copy", "3618": "yan", "3619": " aim", "3620": " Mart", "3621": " x", "3622": "ocked", "3623": " compared", "3624": "100", "3625": " title", "3626": " English", "3627": " Day", "3628": " wall", "3629": "lease", "3630": " century", "3631": "AP", "3632": " college", "3633": " eyes", "3634": " estim", "3635": " league", "3636": " shown", "3637": " stra", "3638": " Val", "3639": " French", "3640": " yes", "3641": " positive", "3642": "ource", "3643": " books", "3644": " powerful", "3645": " refer", "3646": " contribut", "3647": " bal", "3648": "enty", "3649": " limited", "3650": " band", "3651": "45", "3652": " necessary", "3653": " sche", "3654": " Star", "3655": " citizens", "3656": " forced", "3657": "cient", "3658": "35", "3659": "ufact", "3660": " candidate", "3661": " disp", "3662": " Here", "3663": " trust", "3664": " conference", "3665": " arch", "3666": "aud", "3667": " Rober", "3668": " largest", "3669": " analysis", "3670": " Syria", "3671": " spending", "3672": "igration", "3673": "orks", "3674": "aint", "3675": " sal", "3676": "26", "3677": " Of", "3678": " presidential", "3679": " note", "3680": "My", "3681": " aware", "3682": " schools", "3683": " throw", "3684": " meant", "3685": " eventually", "3686": " religious", "3687": " executive", "3688": "venue", "3689": " Tor", "3690": " Ben", "3691": " correct", "3692": " physical", "3693": " followed", "3694": " Dis", "3695": "ares", "3696": " families", "3697": " illeg", "3698": " streng", "3699": " feature", "3700": " crowd", "3701": " mix", "3702": "Be", "3703": " confir", "3704": " bott", "3705": " Wind", "3706": " firm", "3707": " easily", "3708": " cool", "3709": " Air", "3710": "orney", "3711": " autom", "3712": " esc", "3713": " 29", "3714": "ero", "3715": " allows", "3716": " pus", "3717": "ube", "3718": "Is", "3719": " gives", "3720": " yourself", "3721": " grad", "3722": " feed", "3723": " treatment", "3724": " actions", "3725": "ressed", "3726": "cul", "3727": "rated", "3728": "band", "3729": "board", "3730": "ID", "3731": " 196", "3732": "ken", "3733": " draft", "3734": "craft", "3735": "iring", "3736": " detail", "3737": "New", "3738": " susp", "3739": " overall", "3740": "etro", "3741": " Mex", "3742": "encies", "3743": " Bel", "3744": " smart", "3745": " income", "3746": "By", "3747": " ang", "3748": " ideas", "3749": " appeared", "3750": "EC", "3751": " central", "3752": " politics", "3753": " display", "3754": " signed", "3755": "OM", "3756": "bum", "3757": " weapons", "3758": " analy", "3759": " har", "3760": " psych", "3761": " decades", "3762": " promot", "3763": " nice", "3764": " dise", "3765": " frequ", "3766": " uses", "3767": " senior", "3768": "ET", "3769": " crime", "3770": "Advertisement", "3771": "Don", "3772": " lif", "3773": " Bre", "3774": " Govern", "3775": " unique", "3776": " International", "3777": " credit", "3778": " Jer", "3779": " door", "3780": "rs", "3781": " crisis", "3782": "According", "3783": "):", "3784": " altern", "3785": "resh", "3786": " benefits", "3787": " developed", "3788": " mist", "3789": "uty", "3790": "mar", "3791": " conflic", "3792": "riage", "3793": " truth", "3794": " noted", "3795": " Cap", "3796": " drop", "3797": " \u00a3", "3798": "urance", "3799": "iable", "3800": "inn", "3801": " related", "3802": " sales", "3803": " goals", "3804": " beaut", "3805": " individuals", "3806": "itely", "3807": " continues", "3808": "28", "3809": "box", "3810": " Arab", "3811": " School", "3812": " Angel", "3813": "iny", "3814": " rates", "3815": " EU", "3816": " rap", "3817": " lic", "3818": " customers", "3819": "IA", "3820": " challenge", "3821": " sto", "3822": " projects", "3823": "onents", "3824": " Australia", "3825": " Earth", "3826": "part", "3827": " charge", "3828": "erved", "3829": " predict", "3830": " apparent", "3831": "nown", "3832": "29", "3833": " Police", "3834": " intelligence", "3835": " peace", "3836": "change", "3837": " Union", "3838": " previously", "3839": " fully", "3840": " measure", "3841": " Christian", "3842": " lines", "3843": " Smith", "3844": " straight", "3845": " Germany", "3846": " manager", "3847": " advant", "3848": " brother", "3849": " larger", "3850": "net", "3851": " successful", "3852": " rule", "3853": " expand", "3854": " highly", "3855": " clearly", "3856": " reform", "3857": "oti", "3858": " George", "3859": " seemed", "3860": "orter", "3861": " Franc", "3862": "Pro", "3863": " criminal", "3864": " emb", "3865": " Comp", "3866": "ki", "3867": "Some", "3868": "Un", "3869": " primary", "3870": "owers", "3871": "osh", "3872": "attle", "3873": " Cr", "3874": "iced", "3875": "21", "3876": " minor", "3877": "ounds", "3878": "antly", "3879": " spread", "3880": " traff", "3881": " knowledge", "3882": "iance", "3883": "inated", "3884": " incident", "3885": " attract", "3886": "ser", "3887": " Tom", "3888": " Flor", "3889": " resources", "3890": " programs", "3891": "while", "3892": "ategy", "3893": " Council", "3894": " reached", "3895": " greater", "3896": " save", "3897": " web", "3898": " spir", "3899": "olic", "3900": " Ber", "3901": "ean", "3902": " kept", "3903": " High", "3904": " arm", "3905": "que", "3906": "ota", "3907": "dom", "3908": "secut", "3909": " emot", "3910": " send", "3911": " feet", "3912": " Ant", "3913": " studies", "3914": " prem", "3915": "Ar", "3916": " Internet", "3917": " favorite", "3918": " places", "3919": " color", "3920": " Rec", "3921": " manufact", "3922": "sey", "3923": " rare", "3924": " Brown", "3925": "onent", "3926": " Ham", "3927": "vere", "3928": " shooting", "3929": "icit", "3930": "iders", "3931": " knows", "3932": "oday", "3933": " Def", "3934": " General", "3935": "ocks", "3936": " regular", "3937": " rise", "3938": "lick", "3939": "ingly", "3940": " liter", "3941": "roll", "3942": "wide", "3943": "levision", "3944": " sources", "3945": " fighting", "3946": " laun", "3947": "icago", "3948": " Mac", "3949": "ville", "3950": " activity", "3951": "term", "3952": "bon", "3953": " pun", "3954": " owners", "3955": " status", "3956": " options", "3957": " voice", "3958": "EO", "3959": " fine", "3960": " caused", "3961": " Up", "3962": " normal", "3963": "usion", "3964": "ING", "3965": "aith", "3966": " claimed", "3967": " spend", "3968": " organiz", "3969": " ended", "3970": "miss", "3971": "33", "3972": " cities", "3973": "ado", "3974": "70", "3975": "org", "3976": " Rob", "3977": " Gold", "3978": " La", "3979": " enem", "3980": " 2007", "3981": " calling", "3982": "\u043e", "3983": "mission", "3984": "iled", "3985": " From", "3986": "ength", "3987": " reflect", "3988": " integr", "3989": " Every", "3990": "ya", "3991": "ifying", "3992": " England", "3993": " shut", "3994": " researchers", "3995": " haven", "3996": " prices", "3997": "itness", "3998": " female", "3999": "oles", "4000": "\u201d,", "4001": " names", "4002": " Mag", "4003": " happens", "4004": " virt", "4005": " employees", "4006": "Not", "4007": "uman", "4008": "mark", "4009": " trou", "4010": " adding", "4011": " ele", "4012": "mittee", "4013": "inger", "4014": "uana", "4015": " supposed", "4016": " basic", "4017": " hospital", "4018": " plant", "4019": " wait", "4020": "iverse", "4021": " policies", "4022": " pros", "4023": " print", "4024": " raised", "4025": " jump", "4026": "rol", "4027": " traditional", "4028": " album", "4029": "ica", "4030": " absolute", "4031": " charges", "4032": " concerns", "4033": " slight", "4034": " style", "4035": " creating", "4036": " acqu", "4037": "Sc", "4038": " grand", "4039": " patients", "4040": " funding", "4041": "ribution", "4042": "roid", "4043": " authorities", "4044": " scen", "4045": " freedom", "4046": " beat", "4047": " commer", "4048": " seeing", "4049": ".\u2019", "4050": " lik", "4051": "500", "4052": "see", "4053": " minister", "4054": " AP", "4055": " Scott", "4056": " impl", "4057": " cry", "4058": " leaving", "4059": " actual", "4060": " mechan", "4061": " Bay", "4062": " green", "4063": " beg", "4064": "alse", "4065": "ram", "4066": "EL", "4067": " Florida", "4068": "ona", "4069": " behavior", "4070": " gold", "4071": " ir", "4072": "rian", "4073": ".'", "4074": " birth", "4075": " station", "4076": " push", "4077": "ijuana", "4078": " agreement", "4079": " mer", "4080": " offered", "4081": " Most", "4082": " ensure", "4083": "Here", "4084": "pen", "4085": " weight", "4086": " weekend", "4087": "SA", "4088": " eth", "4089": " rank", "4090": " Mo", "4091": " Hillary", "4092": " vac", "4093": "itude", "4094": " propos", "4095": " revealed", "4096": " willing", "4097": " posted", "4098": " eye", "4099": " adop", "4100": " values", "4101": " determin", "4102": "earch", "4103": " Well", "4104": "acing", "4105": " application", "4106": " mostly", "4107": " establ", "4108": " Sun", "4109": " According", "4110": "aby", "4111": "soft", "4112": "pri", "4113": " Let", "4114": "OU", "4115": " Alex", "4116": " adult", "4117": " picture", "4118": " Reg", "4119": " brief", "4120": " Law", "4121": " believed", "4122": " strategy", "4123": " learned", "4124": " records", "4125": "istry", "4126": " choose", "4127": " Trans", "4128": " wonder", "4129": "90", "4130": " install", "4131": " whatever", "4132": "cher", "4133": "igned", "4134": " qual", "4135": " lawy", "4136": " dire", "4137": " enforce", "4138": " benefit", "4139": " massive", "4140": " France", "4141": " cars", "4142": " uns", "4143": " appl", "4144": " mount", "4145": "ection", "4146": " Chicago", "4147": " fat", "4148": " street", "4149": " feeling", "4150": " parties", "4151": " wild", "4152": " arrested", "4153": " devices", "4154": "http", "4155": " People", "4156": "IL", "4157": " whom", "4158": " assault", "4159": " wat", "4160": "gen", "4161": " influence", "4162": " Port", "4163": "Ex", "4164": "uild", "4165": " enter", "4166": " asking", "4167": " lose", "4168": " Phil", "4169": " mission", "4170": " Oh", "4171": "ties", "4172": "cont", "4173": " showing", "4174": " Stud", "4175": " temper", "4176": "liament", "4177": " border", "4178": " provides", "4179": " Secret", "4180": " produced", "4181": " judge", "4182": " critical", "4183": " confirmed", "4184": " Bush", "4185": "point", "4186": " operations", "4187": "no", "4188": " tend", "4189": " images", "4190": " negoti", "4191": " drink", "4192": " Lou", "4193": "orial", "4194": "udd", "4195": " celebr", "4196": " residents", "4197": "ugg", "4198": "ste", "4199": "aked", "4200": "ST", "4201": " produce", "4202": " district", "4203": "ription", "4204": " Health", "4205": " runs", "4206": " debt", "4207": " teac", "4208": "However", "4209": " cru", "4210": " Wall", "4211": " etc", "4212": " Mat", "4213": " opposition", "4214": "Cl", "4215": "estic", "4216": "rav", "4217": " Committee", "4218": "icial", "4219": " brand", "4220": "ront", "4221": " Bit", "4222": "ented", "4223": " core", "4224": " pattern", "4225": "mine", "4226": " section", "4227": " defend", "4228": "cell", "4229": " independent", "4230": "ags", "4231": " Korea", "4232": " Why", "4233": " hero", "4234": " Mod", "4235": " Press", "4236": " advoc", "4237": "ocr", "4238": " dollars", "4239": " effective", "4240": " tick", "4241": " Commission", "4242": "cience", "4243": "ae", "4244": " Palest", "4245": " solution", "4246": "ords", "4247": " interested", "4248": " digital", "4249": " vill", "4250": "BA", "4251": " highest", "4252": " opening", "4253": "rial", "4254": " worse", "4255": " responsible", "4256": " Mal", "4257": " learning", "4258": " Sam", "4259": "CC", "4260": " offers", "4261": " trial", "4262": "icians", "4263": " Get", "4264": " Francis", "4265": " replace", "4266": " agreed", "4267": " Other", "4268": " restrict", "4269": " memory", "4270": "iation", "4271": " daily", "4272": " investment", "4273": " Western", "4274": " train", "4275": "ipe", "4276": " ;", "4277": " types", "4278": " mur", "4279": " occas", "4280": "uries", "4281": " Because", "4282": " Liber", "4283": "illing", "4284": " theory", "4285": "oly", "4286": " Justice", "4287": " millions", "4288": " basis", "4289": " chem", "4290": " kick", "4291": " marriage", "4292": " Office", "4293": " explained", "4294": " Cup", "4295": " chair", "4296": " generally", "4297": " television", "4298": " heavy", "4299": " Del", "4300": " proposed", "4301": "44", "4302": "win", "4303": " der", "4304": "Con", "4305": " miles", "4306": " Our", "4307": " Found", "4308": "These", "4309": " opinion", "4310": "Get", "4311": " defe", "4312": "\u2022", "4313": " bur", "4314": "rad", "4315": " condition", "4316": " Micro", "4317": "aks", "4318": " 80", "4319": " Mike", "4320": " onto", "4321": " protest", "4322": "rig", "4323": " reject", "4324": "vest", "4325": " NFL", "4326": " map", "4327": " becomes", "4328": "rate", "4329": " achieve", "4330": " partners", "4331": " Mil", "4332": " associated", "4333": " male", "4334": "icip", "4335": " Johnson", "4336": " destroy", "4337": " load", "4338": " assum", "4339": " hundreds", "4340": "oom", "4341": "====", "4342": "azing", "4343": " advantage", "4344": " opened", "4345": " surround", "4346": "coming", "4347": " coal", "4348": "ander", "4349": " understanding", "4350": "well", "4351": "outhern", "4352": " Security", "4353": "upp", "4354": " obtain", "4355": " announce", "4356": " Add", "4357": " limit", "4358": "________", "4359": "odes", "4360": " Ter", "4361": " management", "4362": "eline", "4363": "ading", "4364": " vs", "4365": " ship", "4366": " ice", "4367": " sleep", "4368": " born", "4369": "orthern", "4370": "bert", "4371": " easier", "4372": " ", "4373": "36", "4374": "32", "4375": " controvers", "4376": "la", "4377": "AA", "4378": "known", "4379": " photo", "4380": " legislation", "4381": " thus", "4382": " initial", "4383": " accused", "4384": " Windows", "4385": " becoming", "4386": " illegal", "4387": " Lab", "4388": "witch", "4389": " unlike", "4390": " species", "4391": " spl", "4392": " Att", "4393": " Big", "4394": "GB", "4395": " professional", "4396": " electric", "4397": " camera", "4398": " join", "4399": " Great", "4400": " 31", "4401": " Many", "4402": " neighbor", "4403": "FC", "4404": "olf", "4405": " frame", "4406": " double", "4407": "!!", "4408": " Uk", "4409": " harm", "4410": "lant", "4411": " wealth", "4412": " served", "4413": "Mr", "4414": " rat", "4415": " location", "4416": " belief", "4417": " resist", "4418": " nine", "4419": " serve", "4420": " shared", "4421": " strik", "4422": "BS", "4423": " negative", "4424": "za", "4425": " extremely", "4426": " winning", "4427": " scientists", "4428": " documents", "4429": " bottom", "4430": " 35", "4431": " Art", "4432": " active", "4433": " machine", "4434": "ortunately", "4435": " bed", "4436": "level", "4437": " purpose", "4438": " incred", "4439": " victims", "4440": " solid", "4441": " audience", "4442": " Islamic", "4443": " 2006", "4444": " reduce", "4445": "iful", "4446": "PS", "4447": " returned", "4448": " department", "4449": "irgin", "4450": " amb", "4451": "ih", "4452": "rey", "4453": "ears", "4454": " 90", "4455": " marijuana", "4456": " Hall", "4457": "orrow", "4458": "38", "4459": " Sanders", "4460": " Commun", "4461": "lands", "4462": "ios", "4463": "37", "4464": "house", "4465": " church", "4466": " Dist", "4467": " ran", "4468": "tered", "4469": " Your", "4470": " existing", "4471": "istics", "4472": " notice", "4473": " communities", "4474": " explain", "4475": " victory", "4476": " bomb", "4477": " leadership", "4478": "atically", "4479": " doubt", "4480": "OL", "4481": " die", "4482": " comfort", "4483": " argument", "4484": " unc", "4485": " teach", "4486": " watching", "4487": "ghan", "4488": " faith", "4489": " instance", "4490": " putting", "4491": " notes", "4492": " mobile", "4493": " separate", "4494": " Institute", "4495": " micro", "4496": " hearing", "4497": "met", "4498": " internet", "4499": "acity", "4500": " Mad", "4501": " episode", "4502": " Bank", "4503": "asy", "4504": "ipped", "4505": " Canadian", "4506": " definitely", "4507": " Ev", "4508": " fresh", "4509": "ada", "4510": " PM", "4511": "Bl", "4512": " AM", "4513": "omas", "4514": "iller", "4515": "ario", "4516": " vehicle", "4517": "works", "4518": " conservative", "4519": " committee", "4520": "34", "4521": " appeal", "4522": " views", "4523": "\u0435", "4524": " purs", "4525": " Fin", "4526": " coverage", "4527": " Inc", "4528": " background", "4529": "scrib", "4530": "ipp", "4531": "PA", "4532": " floor", "4533": "which", "4534": "resp", "4535": " launched", "4536": " direction", "4537": "ography", "4538": "iliar", "4539": " Sl", "4540": " supporters", "4541": "\u0430", "4542": " issued", "4543": " dangerous", "4544": "inct", "4545": "zen", "4546": " trend", "4547": "itt", "4548": " competition", "4549": " radio", "4550": " north", "4551": " sun", "4552": " max", "4553": "EM", "4554": " drugs", "4555": " suggested", "4556": " sites", "4557": "andom", "4558": " Over", "4559": " labor", "4560": " structure", "4561": " Like", "4562": "", "4563": " spoke", "4564": " cards", "4565": " sett", "4566": " Carol", "4567": " repeated", "4568": " items", "4569": " decade", "4570": "going", "4571": " traffic", "4572": " commercial", "4573": " novel", "4574": " Direct", "4575": "oman", "4576": "vention", "4577": " stated", "4578": " Game", "4579": " false", "4580": "gency", "4581": " Fox", "4582": " worst", "4583": " contain", "4584": "ctors", "4585": " refere", "4586": " Church", "4587": "Image", "4588": " closed", "4589": "anted", "4590": " charged", "4591": "ribute", "4592": " Since", "4593": " task", "4594": " FBI", "4595": " transfer", "4596": " disease", "4597": "ampionship", "4598": " smaller", "4599": " hus", "4600": " driver", "4601": " react", "4602": " nor", "4603": "bing", "4604": " ded", "4605": " restaur", "4606": "but", "4607": " Britain", "4608": " daughter", "4609": "NA", "4610": "Americ", "4611": " driving", "4612": " telling", "4613": "semb", "4614": " entirely", "4615": "55", "4616": " Los", "4617": " discovered", "4618": " hack", "4619": "ference", "4620": " plays", "4621": "hem", "4622": " UN", "4623": " tools", "4624": " cash", "4625": " surface", "4626": " Pri", "4627": " Wil", "4628": " experiment", "4629": " 70", "4630": " gay", "4631": " concerned", "4632": "akistan", "4633": " supported", "4634": " exerc", "4635": " animals", "4636": " Que", "4637": " transport", "4638": "ait", "4639": " aspect", "4640": "iling", "4641": " compar", "4642": " finding", "4643": "ulated", "4644": " Israeli", "4645": "ady", "4646": "ulf", "4647": " older", "4648": "do", "4649": " categ", "4650": "overy", "4651": "azon", "4652": " candidates", "4653": "spe", "4654": "oyal", "4655": " Chris", "4656": "48", "4657": " Jones", "4658": " strength", "4659": "CH", "4660": "ici", "4661": " farm", "4662": " requires", "4663": "how", "4664": " please", "4665": "equ", "4666": "andon", "4667": " businesses", "4668": " wel", "4669": "annel", "4670": " context", "4671": " activities", "4672": "phone", "4673": "ibrary", "4674": "night", "4675": " caught", "4676": " largely", "4677": " testing", "4678": " annual", "4679": " Are", "4680": " Ukrain", "4681": "icy", "4682": " consequ", "4683": " allowing", "4684": "NN", "4685": " fuel", "4686": " Sup", "4687": "SP", "4688": "ossible", "4689": "!\u201d", "4690": "izes", "4691": " raise", "4692": " blue", "4693": "lor", "4694": " insurance", "4695": " murder", "4696": " Ken", "4697": " stock", "4698": " Robert", "4699": " strateg", "4700": " generation", "4701": "arant", "4702": " ge", "4703": " Ty", "4704": "ception", "4705": "rick", "4706": "kins", "4707": " concern", "4708": " Tre", "4709": " believes", "4710": "47", "4711": " truly", "4712": "ius", "4713": " Ac", "4714": " afford", "4715": " accur", "4716": "inter", "4717": " decisions", "4718": "\u2014\u2014", "4719": "rim", "4720": "tery", "4721": " phil", "4722": " construction", "4723": "osure", "4724": " justice", "4725": " Mer", "4726": "itable", "4727": " highlight", "4728": "0000", "4729": " witness", "4730": "ava", "4731": " holding", "4732": "Le", "4733": " Jewish", "4734": " Gree", "4735": " Miss", "4736": "bre", "4737": "igrants", "4738": " guess", "4739": " presence", "4740": "anging", "4741": " unit", "4742": " attend", "4743": " Ver", "4744": " scale", "4745": "\u2018", "4746": " planning", "4747": " Sil", "4748": "olly", "4749": "cknow", "4750": " Association", "4751": " refuge", "4752": " tim", "4753": " san", "4754": " African", "4755": " rough", "4756": "pective", "4757": " Africa", "4758": " placed", "4759": " tells", "4760": " PC", "4761": " length", "4762": " GOP", "4763": " Jim", "4764": " establish", "4765": " mentioned", "4766": " sequ", "4767": " Afghan", "4768": "ancy", "4769": " spokesman", "4770": " waiting", "4771": " joined", "4772": " catch", "4773": "More", "4774": " kid", "4775": " Pre", "4776": "ey", "4777": "39", "4778": " conflict", "4779": " hasn", "4780": "ocracy", "4781": " missing", "4782": " initi", "4783": " deliver", "4784": " abuse", "4785": "nel", "4786": " injury", "4787": " recommend", "4788": " Angeles", "4789": " Kh", "4790": " interests", "4791": " introduced", "4792": " update", "4793": " enforcement", "4794": " providing", "4795": "icon", "4796": "isation", "4797": "ros", "4798": " established", "4799": " Frank", "4800": " occup", "4801": " eat", "4802": " removed", "4803": " cells", "4804": "bour", "4805": " Yes", "4806": " Instead", "4807": " conversation", "4808": " banks", "4809": " cancer", "4810": "vant", "4811": " discussion", "4812": " stopped", "4813": " fant", "4814": "cks", "4815": "##", "4816": " Fore", "4817": " useful", "4818": "itz", "4819": " homes", "4820": "azine", "4821": " newsp", "4822": " offensive", "4823": " assess", "4824": " south", "4825": " Jeff", "4826": " sports", "4827": " download", "4828": "ronic", "4829": " Step", "4830": " Palestin", "4831": "DA", "4832": "ula", "4833": " obvious", "4834": " fourth", "4835": "what", "4836": "oted", "4837": " cook", "4838": "lig", "4839": " models", "4840": " CEO", "4841": " bul", "4842": " housing", "4843": " transl", "4844": " 2005", "4845": " 2018", "4846": "kin", "4847": " measures", "4848": " stick", "4849": "onto", "4850": "Our", "4851": "oms", "4852": " Microsoft", "4853": "umn", "4854": "75", "4855": "ications", "4856": "formation", "4857": "anda", "4858": " girls", "4859": "mail", "4860": "owl", "4861": "iter", "4862": " operation", "4863": "season", "4864": " Leg", "4865": " THE", "4866": " setting", "4867": " managed", "4868": " files", "4869": " identified", "4870": " Const", "4871": " MP", "4872": "real", "4873": " hair", "4874": " Jud", "4875": " graph", "4876": " focused", "4877": " Group", "4878": "place", "4879": " appropri", "4880": " finished", "4881": " arrived", "4882": " prefer", "4883": " spirit", "4884": " skills", "4885": " earth", "4886": " veter", "4887": " figures", "4888": "ulate", "4889": " Tim", "4890": "****", "4891": "49", "4892": " Virgin", "4893": " acknow", "4894": " conclud", "4895": "ups", "4896": " Japanese", "4897": " Sal", "4898": " Prof", "4899": " committed", "4900": " therefore", "4901": "agn", "4902": " keeping", "4903": " funds", "4904": " exclus", "4905": " Rock", "4906": " Louis", "4907": " Pakistan", "4908": "apped", "4909": " identity", "4910": " Mexico", "4911": " tough", "4912": "Pl", "4913": "outs", "4914": " exchange", "4915": " feels", "4916": " otherwise", "4917": "Des", "4918": " partner", "4919": " Supreme", "4920": "ka", "4921": "ication", "4922": "RA", "4923": "wing", "4924": " Met", "4925": " relatively", "4926": "eah", "4927": "enses", "4928": " owner", "4929": " survey", "4930": " detect", "4931": "igan", "4932": "rd", "4933": " trip", "4934": "itutional", "4935": " Android", "4936": " steps", "4937": " 2000", "4938": " Ryan", "4939": " slightly", "4940": " click", "4941": " connection", "4942": "ocal", "4943": "amm", "4944": " tweet", "4945": "\u00e1", "4946": " Army", "4947": " Inter", "4948": " Mont", "4949": "dden", "4950": " photos", "4951": " Richard", "4952": " husband", "4953": " depend", "4954": "uct", "4955": " weak", "4956": " protection", "4957": " gender", "4958": " defensive", "4959": " mere", "4960": " Ir", "4961": " elements", "4962": "Trump", "4963": "icide", "4964": "isf", "4965": "rency", "4966": "verse", "4967": "ighter", "4968": " strike", "4969": " circum", "4970": " gain", "4971": " corner", "4972": " killing", "4973": " collection", "4974": " Government", "4975": "\":", "4976": "gar", "4977": "ucky", "4978": " fle", "4979": " roll", "4980": " suggests", "4981": "ga", "4982": "prof", "4983": "makers", "4984": "ancing", "4985": "Go", "4986": " sust", "4987": " aggress", "4988": " Martin", "4989": " dat", "4990": " commission", "4991": "onym", "4992": " supply", "4993": "with", "4994": "hi", "4995": "TC", "4996": " taxes", "4997": "ania", "4998": "hens", "4999": "vis", "5000": " Although", "5001": "odies", "5002": " bigger", "5003": "ano", "5004": " Nor", "5005": " Sur", "5006": " failure", "5007": "ils", "5008": "range", "5009": "mas", "5010": " remind", "5011": " mental", "5012": " sides", "5013": " amazing", "5014": " planet", "5015": "rees", "5016": " speaking", "5017": "Photo", "5018": " happening", "5019": " Dec", "5020": " starts", "5021": "Why", "5022": " organizations", "5023": "uate", "5024": " Joe", "5025": "", "5026": "gers", "5027": "uke", "5028": " Out", "5029": " none", "5030": "46", "5031": " planned", "5032": "hedul", "5033": " sudden", "5034": " guard", "5035": "ym", "5036": " Team", "5037": " window", "5038": " Good", "5039": " familiar", "5040": "adium", "5041": " talks", "5042": " Jose", "5043": " spect", "5044": " wish", "5045": "awn", "5046": " hate", "5047": " award", "5048": " crew", "5049": "olit", "5050": " thanks", "5051": " pit", "5052": " struct", "5053": " Pet", "5054": " decide", "5055": "ola", "5056": "gypt", "5057": "idering", "5058": " immigration", "5059": " army", "5060": " 32", "5061": " carried", "5062": " seconds", "5063": "ynam", "5064": " regist", "5065": " appoint", "5066": " scientific", "5067": " pet", "5068": " Sub", "5069": "eless", "5070": "Last", "5071": " standing", "5072": " Fire", "5073": " helping", "5074": "agues", "5075": " Mary", "5076": " script", "5077": " Bern", "5078": "stream", "5079": " Web", "5080": " College", "5081": "uters", "5082": " Their", "5083": " beer", "5084": " 45", "5085": " revolution", "5086": "oston", "5087": "run", "5088": " multi", "5089": "lo", "5090": " Thomas", "5091": " Research", "5092": " filed", "5093": " environmental", "5094": " domestic", "5095": " Secretary", "5096": " standards", "5097": "arsh", "5098": " que", "5099": "ocol", "5100": "imal", "5101": "gn", "5102": " Also", "5103": " variety", "5104": " markets", "5105": " philos", "5106": " sch", "5107": "erous", "5108": " turns", "5109": " tack", "5110": " impossible", "5111": "].", "5112": " Atlant", "5113": " pair", "5114": " accounts", "5115": " votes", "5116": " degree", "5117": " dropped", "5118": " vul", "5119": " Us", "5120": " academ", "5121": " territ", "5122": " neighborhood", "5123": " interact", "5124": " cold", "5125": "iams", "5126": " possibly", "5127": " Syrian", "5128": "aven", "5129": " appre", "5130": " operating", "5131": " balance", "5132": " professor", "5133": "iser", "5134": " Service", "5135": "aren", "5136": "fe", "5137": "65", "5138": "HL", "5139": " alternative", "5140": "illa", "5141": " tests", "5142": "Read", "5143": "acks", "5144": " worry", "5145": " honest", "5146": "aded", "5147": " server", "5148": " cuts", "5149": "ader", "5150": "!\"", "5151": "IM", "5152": " increasingly", "5153": " union", "5154": " rich", "5155": "pm", "5156": " fellow", "5157": "cious", "5158": " princ", "5159": "ruit", "5160": " lived", "5161": " losing", "5162": " Bur", "5163": " changing", "5164": "itect", "5165": " apply", "5166": " apparently", "5167": "ayer", "5168": " settle", "5169": " Foundation", "5170": "arks", "5171": "rastructure", "5172": " Two", "5173": " univers", "5174": " developers", "5175": " ultimately", "5176": "icted", "5177": " humans", "5178": " agencies", "5179": "stein", "5180": " sounds", "5181": " twice", "5182": " religion", "5183": " Time", "5184": "gu", "5185": " Prime", "5186": " Images", "5187": " colle", "5188": "=\"", "5189": " sea", "5190": " Last", "5191": " absolutely", "5192": "ashed", "5193": "From", "5194": "ores", "5195": " Mos", "5196": " ath", "5197": " soldiers", "5198": "ansion", "5199": " Den", "5200": " closer", "5201": " innov", "5202": " units", "5203": " schedul", "5204": "\u0438", "5205": "iot", "5206": " authority", "5207": " healthy", "5208": " beautiful", "5209": " fundament", "5210": " mut", "5211": "och", "5212": " possibility", "5213": " equip", "5214": " paying", "5215": "roud", "5216": " Carolina", "5217": "31", "5218": "obby", "5219": " developing", "5220": " expensive", "5221": " yards", "5222": " flight", "5223": " corporate", "5224": " vast", "5225": " writer", "5226": " skin", "5227": " apart", "5228": "\u00c2", "5229": "coh", "5230": "IV", "5231": " regarding", "5232": " Central", "5233": " adjust", "5234": " seeking", "5235": " deploy", "5236": " experts", "5237": " Peter", "5238": "Of", "5239": " imagine", "5240": " ST", "5241": "den", "5242": " Jes", "5243": "related", "5244": " Lat", "5245": "isted", "5246": " Under", "5247": " solar", "5248": " applications", "5249": " tast", "5250": "ND", "5251": "01", "5252": "apers", "5253": " sitting", "5254": " animal", "5255": "look", "5256": " vision", "5257": " District", "5258": " internal", "5259": "atures", "5260": " capacity", "5261": "ologies", "5262": " Jon", "5263": " heat", "5264": " Toronto", "5265": " Francisco", "5266": " covered", "5267": " pil", "5268": "state", "5269": "under", "5270": "osen", "5271": "IP", "5272": " gar", "5273": " arms", "5274": " unless", "5275": " USA", "5276": "aine", "5277": "Even", "5278": " responsibility", "5279": "ION", "5280": " trail", "5281": " elections", "5282": " Ari", "5283": " error", "5284": " Middle", "5285": "LE", "5286": " Plan", "5287": " university", "5288": "oving", "5289": " 2004", "5290": " Bitcoin", "5291": " fol", "5292": " famous", "5293": " presented", "5294": " Put", "5295": " forms", "5296": "enced", "5297": " Amazon", "5298": " Camp", "5299": "idden", "5300": " earn", "5301": " surprise", "5302": " guarant", "5303": "ias", "5304": " fif", "5305": " attorney", "5306": " convention", "5307": " odd", "5308": "uster", "5309": " Sol", "5310": "uration", "5311": "Just", "5312": " symb", "5313": "ortion", "5314": " Egypt", "5315": "rible", "5316": " tight", "5317": "\u0442", "5318": " rid", "5319": "hand", "5320": " sport", "5321": "uzz", "5322": " 500", "5323": " broken", "5324": "road", "5325": " teen", "5326": " helps", "5327": " intended", "5328": "lets", "5329": " instit", "5330": "----------------", "5331": "ini", "5332": " vehicles", "5333": "porary", "5334": " estimated", "5335": " Jo", "5336": "person", "5337": "ressive", "5338": " flow", "5339": " Public", "5340": " clim", "5341": "Up", "5342": " streets", "5343": " Boston", "5344": " occurred", "5345": "()", "5346": " shall", "5347": " consult", "5348": " determine", "5349": "Let", "5350": "alls", "5351": " domin", "5352": "gl", "5353": " expert", "5354": " ton", "5355": " pieces", "5356": " Those", "5357": "anche", "5358": " fired", "5359": " troops", "5360": " Gal", "5361": "OW", "5362": " located", "5363": "useum", "5364": "terday", "5365": " Chief", "5366": " prove", "5367": " Mur", "5368": " rapid", "5369": "\u00c3", "5370": "oty", "5371": " prepared", "5372": "orage", "5373": "ENT", "5374": " stars", "5375": " specifically", "5376": " Cath", "5377": " bringing", "5378": " potentially", "5379": " equal", "5380": " hyp", "5381": " nar", "5382": " insp", "5383": " conclus", "5384": " sector", "5385": "eder", "5386": " scr", "5387": " faster", "5388": " governments", "5389": " stress", "5390": " Once", "5391": " plenty", "5392": " boost", "5393": " random", "5394": " Mass", "5395": " Journal", "5396": "Ab", "5397": " vulner", "5398": " Social", "5399": " selling", "5400": " Prot", "5401": "phas", "5402": " equipment", "5403": "TH", "5404": " breat", "5405": " baby", "5406": " seasons", "5407": " proposal", "5408": " heav", "5409": " Any", "5410": " council", "5411": " jail", "5412": "war", "5413": " Virginia", "5414": "Do", "5415": " ruling", "5416": "inent", "5417": "endment", "5418": "ours", "5419": " refused", "5420": " Paris", "5421": "anish", "5422": "cean", "5423": " factors", "5424": " Spr", "5425": " infrastructure", "5426": " remove", "5427": "ht", "5428": " din", "5429": " era", "5430": " =>", "5431": " offering", "5432": "05", "5433": " secure", "5434": " brow", "5435": " Cur", "5436": " broke", "5437": " weapon", "5438": " prosecut", "5439": "class", "5440": " dram", "5441": " clin", "5442": " expressed", "5443": " voted", "5444": " clot", "5445": " Rub", "5446": " Guard", "5447": " challenges", "5448": "Every", "5449": " Federal", "5450": " conducted", "5451": " methods", "5452": "vey", "5453": "ipping", "5454": "noon", "5455": " Sant", "5456": "64", "5457": "isher", "5458": "ureau", "5459": " combat", "5460": " River", "5461": " elected", "5462": " carbon", "5463": " Island", "5464": " tourn", "5465": " pointed", "5466": " positions", "5467": " Medic", "5468": ",'", "5469": "yr", "5470": " Please", "5471": " remained", "5472": " prime", "5473": " trig", "5474": "ocking", "5475": " Lee", "5476": "rie", "5477": " cultural", "5478": " retail", "5479": " Australian", "5480": "that", "5481": " Mel", "5482": " originally", "5483": " Open", "5484": " Who", "5485": "onom", "5486": " Cru", "5487": "IG", "5488": "cel", "5489": "rog", "5490": " signs", "5491": "ashion", "5492": " master", "5493": "First", "5494": " finish", "5495": " criticism", "5496": "95", "5497": "lyn", "5498": " weren", "5499": "edia", "5500": "mm", "5501": " shape", "5502": " percentage", "5503": "etic", "5504": " greatest", "5505": "olved", "5506": " sale", "5507": " significantly", "5508": " thank", "5509": " appearance", "5510": " Fe", "5511": " voting", "5512": " facing", "5513": " During", "5514": " youth", "5515": " Williams", "5516": " vir", "5517": " involve", "5518": " Sing", "5519": " affected", "5520": "lymp", "5521": " stret", "5522": " tele", "5523": "Sp", "5524": " determined", "5525": "standing", "5526": " reduced", "5527": " regime", "5528": " dream", "5529": " chemical", "5530": "rier", "5531": "DP", "5532": " wood", "5533": " bought", "5534": " Ro", "5535": " Saud", "5536": " herself", "5537": "Since", "5538": " Rem", "5539": "col", "5540": " indeed", "5541": " mode", "5542": " obviously", "5543": " minimum", "5544": " grew", "5545": " marg", "5546": " Force", "5547": " Both", "5548": " Color", "5549": "reens", "5550": " remaining", "5551": " thr", "5552": " Photo", "5553": "sen", "5554": " handle", "5555": " hurt", "5556": " hun", "5557": " contrast", "5558": "aling", "5559": " rent", "5560": "ordin", "5561": " politicians", "5562": " argued", "5563": "ighters", "5564": " cas", "5565": " supporting", "5566": " recorded", "5567": " Steve", "5568": " plus", "5569": " subs", "5570": " leads", "5571": " revenue", "5572": " surprising", "5573": " Free", "5574": " purchase", "5575": " switch", "5576": " appreci", "5577": " wearing", "5578": "arp", "5579": " excited", "5580": " tact", "5581": " bound", "5582": " considering", "5583": " videos", "5584": " films", "5585": " minute", "5586": " explos", "5587": "gment", "5588": " proced", "5589": " Book", "5590": " basically", "5591": " Pac", "5592": " 1990", "5593": "ownt", "5594": " Conserv", "5595": " experienced", "5596": " differences", "5597": " aid", "5598": " turning", "5599": " concent", "5600": "cohol", "5601": " tur", "5602": " accident", "5603": " identify", "5604": "essions", "5605": " shift", "5606": " https", "5607": " opportunities", "5608": "hab", "5609": " panel", "5610": "top", "5611": " afternoon", "5612": " Charl", "5613": " belong", "5614": "ogue", "5615": " observ", "5616": " pulled", "5617": " spring", "5618": "SS", "5619": " seriously", "5620": " aircraft", "5621": " motiv", "5622": " Power", "5623": "ruption", "5624": " //", "5625": " glass", "5626": "life", "5627": "odd", "5628": "bur", "5629": " Nov", "5630": "uts", "5631": " consumers", "5632": " prospect", "5633": "PD", "5634": " agent", "5635": " Rad", "5636": " seat", "5637": " depart", "5638": " ends", "5639": " diss", "5640": " evening", "5641": " listen", "5642": " Haw", "5643": "asp", "5644": " emergency", "5645": "CL", "5646": "osite", "5647": " completed", "5648": " IN", "5649": " visual", "5650": " treated", "5651": "apping", "5652": "hered", "5653": " ast", "5654": " Daily", "5655": " element", "5656": "ller", "5657": "apter", "5658": "Another", "5659": " combined", "5660": "oral", "5661": "Ind", "5662": "His", "5663": "anged", "5664": " struggle", "5665": " Road", "5666": "eds", "5667": "hy", "5668": " enemy", "5669": " hopes", "5670": " Show", "5671": " construct", "5672": " lots", "5673": " mort", "5674": " talked", "5675": " Olymp", "5676": " apps", "5677": " passing", "5678": "ket", "5679": " id", "5680": "pet", "5681": "Pe", "5682": ",[", "5683": "TV", "5684": "Cont", "5685": "Well", "5686": " privacy", "5687": "ompl", "5688": "unction", "5689": " Bet", "5690": "ucks", "5691": "raud", "5692": " 195", "5693": " Space", "5694": "ensions", "5695": " powers", "5696": "abilities", "5697": " plants", "5698": " Rel", "5699": " opposed", "5700": " discl", "5701": " Hol", "5702": " widely", "5703": " suit", "5704": " advance", "5705": " Jackson", "5706": "ivered", "5707": "nell", "5708": "aled", "5709": " dismiss", "5710": " trouble", "5711": "uous", "5712": " calcul", "5713": " flat", "5714": " proceed", "5715": " package", "5716": " Project", "5717": " attempts", "5718": " pages", "5719": " burn", "5720": "ita", "5721": " factor", "5722": " distance", "5723": " liberal", "5724": " zone", "5725": "plom", "5726": "oking", "5727": "obe", "5728": "42", "5729": " copyright", "5730": " Matt", "5731": "ternal", "5732": " BBC", "5733": " reference", "5734": " frust", "5735": "rawn", "5736": " tun", "5737": " cart", "5738": " reaction", "5739": "Phone", "5740": "estival", "5741": "ato", "5742": " storm", "5743": " reporters", "5744": " upgr", "5745": " collabor", "5746": " typically", "5747": "zer", "5748": " default", "5749": "PR", "5750": " grab", "5751": "lines", "5752": " valid", "5753": " sac", "5754": "UT", "5755": " 2003", "5756": " instruct", "5757": " hol", "5758": "App", "5759": "ributed", "5760": "mosp", "5761": " quant", "5762": "adow", "5763": " quiet", "5764": "sts", "5765": "idel", "5766": " writes", "5767": " disappoint", "5768": "respond", "5769": "ache", "5770": "mes", "5771": "88", "5772": " denied", "5773": " Mem", "5774": " approved", "5775": "aints", "5776": " bodies", "5777": "care", "5778": "razy", "5779": "aped", "5780": " matters", "5781": " entertain", "5782": " mal", "5783": " responded", "5784": " optim", "5785": "mond", "5786": " stands", "5787": " sets", "5788": "Am", "5789": "erry", "5790": " Today", "5791": "elly", "5792": " NAS", "5793": " capable", "5794": " confidence", "5795": " elimin", "5796": "\u00c2\u00c3", "5797": " renew", "5798": " explo", "5799": "edd", "5800": " Director", "5801": " tradition", "5802": "oken", "5803": "free", "5804": " emp", "5805": " creation", "5806": " split", "5807": "esters", "5808": "sex", "5809": " giant", "5810": " institutions", "5811": "aniel", "5812": " System", "5813": "pass", "5814": " Squ", "5815": " weather", "5816": " coff", "5817": " Ma", "5818": "rant", "5819": " Yet", "5820": " confident", "5821": " unable", "5822": " Penn", "5823": " pitch", "5824": " William", "5825": " satisf", "5826": " broadcast", "5827": "Rep", "5828": " coast", "5829": " severe", "5830": "De", "5831": " Human", "5832": " cloud", "5833": " perspective", "5834": " 300", "5835": " prompt", "5836": " mand", "5837": " fly", "5838": "isters", "5839": "rid", "5840": " advert", "5841": " 2001", "5842": " Ohio", "5843": " transition", "5844": " numerous", "5845": "writ", "5846": " technical", "5847": " Media", "5848": "43", "5849": "unte", "5850": " caption", "5851": " Afghanistan", "5852": " Labour", "5853": "ilit", "5854": "host", "5855": "II", "5856": "employ", "5857": "abled", "5858": " reportedly", "5859": "abin", "5860": " crimes", "5861": " pictures", "5862": " Turkey", "5863": " ordered", "5864": " Tra", "5865": " 36", "5866": " loved", "5867": " faces", "5868": " forget", "5869": " craft", "5870": " advice", "5871": " experiences", "5872": " flag", "5873": " Science", "5874": " shouldn", "5875": " explains", "5876": " Andrew", "5877": " route", "5878": " declared", "5879": " suffered", "5880": "ishes", "5881": " violent", "5882": " approx", "5883": "],", "5884": " reporting", "5885": " Lin", "5886": "astern", "5887": "ampion", "5888": " messages", "5889": " proud", "5890": " movies", "5891": "usiness", "5892": " substant", "5893": "\u00e4", "5894": " delay", "5895": "can", "5896": " newspaper", "5897": " ongoing", "5898": " bull", "5899": "ounded", "5900": " circumst", "5901": " Wal", "5902": "Se", "5903": " guns", "5904": "ilty", "5905": " Grand", "5906": " cann", "5907": " Follow", "5908": " declined", "5909": " connected", "5910": "oves", "5911": "resents", "5912": "Over", "5913": " cooper", "5914": "Res", "5915": "ulations", "5916": " injured", "5917": " delivered", "5918": " picked", "5919": " thoughts", "5920": " excell", "5921": " gra", "5922": " eval", "5923": " accompl", "5924": " findings", "5925": " admitted", "5926": "evin", "5927": " appropriate", "5928": "tion", "5929": " forg", "5930": "OD", "5931": " leaves", "5932": "razil", "5933": "ellow", "5934": " gather", "5935": " prin", "5936": "dule", "5937": " Av", "5938": " emphas", "5939": "angers", "5940": " married", "5941": "nergy", "5942": "called", "5943": " rot", "5944": " edge", "5945": "During", "5946": " publicly", "5947": "Other", "5948": "essor", "5949": "uations", "5950": "ionally", "5951": "77", "5952": "MA", "5953": " updates", "5954": "reland", "5955": " readers", "5956": " rail", "5957": "date", "5958": "arl", "5959": " Wood", "5960": ",\u2019", "5961": " architect", "5962": " walking", "5963": " perman", "5964": " Sov", "5965": " emails", "5966": "LS", "5967": "41", "5968": "ansas", "5969": "cos", "5970": " realize", "5971": " lawyer", "5972": " statements", "5973": " dial", "5974": " Christmas", "5975": "ooth", "5976": " editor", "5977": "cons", "5978": " drivers", "5979": " auth", "5980": " Ron", "5981": " Dou", "5982": " confirm", "5983": " legit", "5984": " Sher", "5985": " Muslims", "5986": " activists", "5987": " session", "5988": " exercise", "5989": " ourselves", "5990": " pool", "5991": "66", "5992": " Scot", "5993": " armed", "5994": "enda", "5995": "arn", "5996": " argue", "5997": " agents", "5998": " contains", "5999": " AT", "6000": " terrorist", "6001": " patient", "6002": "aza", "6003": " Sum", "6004": " moral", "6005": " talent", "6006": " quarterback", "6007": " objects", "6008": " philosoph", "6009": "ouston", "6010": " filled", "6011": " Rev", "6012": "uls", "6013": " sad", "6014": " buildings", "6015": " tech", "6016": "enture", "6017": " Rod", "6018": "Many", "6019": " crack", "6020": "ourney", "6021": " ID", "6022": " Gen", "6023": " transform", "6024": " label", "6025": " practices", "6026": "long", "6027": " tree", "6028": " Phot", "6029": "\u00c2\u00c3\u00c2\u00c3", "6030": "acter", "6031": " dynam", "6032": "mates", "6033": "iat", "6034": " Back", "6035": " Techn", "6036": " effectively", "6037": "", "6038": " 1980", "6039": " missed", "6040": " Hy", "6041": "\u0441", "6042": " examples", "6043": "TA", "6044": "ala", "6045": " Ukraine", "6046": " centre", "6047": " causes", "6048": "asure", "6049": "ERS", "6050": " shop", "6051": "Tube", "6052": " wear", "6053": " subsequ", "6054": " allegations", "6055": " ske", "6056": "Oh", "6057": "word", "6058": "uy", "6059": " fish", "6060": " debut", "6061": " secretary", "6062": " Vict", "6063": " Seattle", "6064": " bond", "6065": " Michigan", "6066": "orry", "6067": " injuries", "6068": "agers", "6069": " See", "6070": "illy", "6071": "\u00ed", "6072": "orders", "6073": " Read", "6074": "amin", "6075": "orse", "6076": " thinks", "6077": " essentially", "6078": " client", "6079": " flo", "6080": " Jul", "6081": " artist", "6082": " expansion", "6083": " Ill", "6084": " Kim", "6085": "Spe", "6086": "Follow", "6087": " sam", "6088": " motor", "6089": " Sign", "6090": " rain", "6091": " hell", "6092": "rum", "6093": "arters", "6094": "def", "6095": " desire", "6096": " GM", "6097": " Bat", "6098": " initially", "6099": "\u043d", "6100": " Saudi", "6101": " pure", "6102": " materials", "6103": " explan", "6104": " franch", "6105": " facts", "6106": "Although", "6107": " Fer", "6108": "gia", "6109": " necessarily", "6110": "ador", "6111": " Work", "6112": "ette", "6113": " governor", "6114": " incor", "6115": " van", "6116": " ing", "6117": " linked", "6118": " performed", "6119": " Life", "6120": " Stan", "6121": " scheduled", "6122": " datab", "6123": " accepted", "6124": "enger", "6125": " myster", "6126": "icing", "6127": " warned", "6128": " diplom", "6129": "rip", "6130": "esome", "6131": "water", "6132": "iest", "6133": " listed", "6134": "kay", "6135": " Mount", "6136": " vari", "6137": "Qu", "6138": " increases", "6139": " advanced", "6140": "American", "6141": " suc", "6142": " playoff", "6143": " faced", "6144": " magazine", "6145": " joint", "6146": " doctor", "6147": " bare", "6148": "Yes", "6149": " neither", "6150": " TO", "6151": " abandon", "6152": "rich", "6153": " Lake", "6154": " athlet", "6155": "illance", "6156": " Week", "6157": " yesterday", "6158": " announcement", "6159": " mir", "6160": " everybody", "6161": " radical", "6162": " decre", "6163": " RE", "6164": " Second", "6165": " nations", "6166": "irty", "6167": " offense", "6168": "Can", "6169": " nearby", "6170": " iPhone", "6171": " follows", "6172": "Most", "6173": " fort", "6174": " Hen", "6175": " resolution", "6176": " begins", "6177": "edy", "6178": " atmosp", "6179": "gent", "6180": " consequences", "6181": " moves", "6182": " surprised", "6183": "athan", "6184": "sembly", "6185": "otic", "6186": " distribution", "6187": " pra", "6188": "itors", "6189": " alt", "6190": " improved", "6191": "law", "6192": " \\", "6193": " applied", "6194": " Dan", "6195": " represents", "6196": " spons", "6197": " chart", "6198": " plane", "6199": " Develop", "6200": " Ireland", "6201": " CNN", "6202": " stood", "6203": "TS", "6204": " af", "6205": " phen", "6206": " enh", "6207": " warm", "6208": " adds", "6209": "85", "6210": " ride", "6211": " config", "6212": " Columb", "6213": " democracy", "6214": " remark", "6215": " Aff", "6216": " flood", "6217": " Blue", "6218": "omin", "6219": "Then", "6220": " 33", "6221": " guilty", "6222": " trib", "6223": " threats", "6224": "irds", "6225": " pushed", "6226": " brings", "6227": " manufacture", "6228": "ideo", "6229": " shots", "6230": " output", "6231": " Barack", "6232": "whel", "6233": " alcohol", "6234": " Romney", "6235": " songs", "6236": " rein", "6237": " withd", "6238": " Jews", "6239": " totally", "6240": "usal", "6241": " Vol", "6242": " bot", "6243": " behavi", "6244": " discussed", "6245": "vin", "6246": " historical", "6247": " Board", "6248": " Str", "6249": " Cub", "6250": " Swed", "6251": "ocratic", "6252": " lawsuit", "6253": " Only", "6254": "\u0440", "6255": " sought", "6256": " consistent", "6257": "twitter", "6258": "arden", "6259": " entry", "6260": " rising", "6261": " receiving", "6262": " investors", "6263": " fill", "6264": " entered", "6265": " kit", "6266": " Div", "6267": " combination", "6268": " NBA", "6269": " Whe", "6270": " row", "6271": " existence", "6272": " restaurant", "6273": " boys", "6274": " bright", "6275": " native", "6276": " island", "6277": " Prem", "6278": " Lib", "6279": " articles", "6280": "stood", "6281": " heads", "6282": " creative", "6283": "abb", "6284": " subscrib", "6285": " storage", "6286": " 2002", "6287": " Korean", "6288": " scored", "6289": " correspond", "6290": " button", "6291": " Brazil", "6292": " roughly", "6293": "fortunately", "6294": "acle", "6295": " resident", "6296": "alty", "6297": " classes", "6298": " square", "6299": " input", "6300": "PU", "6301": " unlikely", "6302": " sem", "6303": "duc", "6304": " sav", "6305": " boss", "6306": " contest", "6307": "icious", "6308": " networks", "6309": " consumer", "6310": " Another", "6311": " lie", "6312": " Its", "6313": "zona", "6314": " fairly", "6315": " Sports", "6316": " ISIS", "6317": " succeed", "6318": " Asia", "6319": " warning", "6320": " resc", "6321": " temperature", "6322": " colleagues", "6323": "Add", "6324": " functions", "6325": "born", "6326": " Hist", "6327": " heavily", "6328": "issions", "6329": " library", "6330": " lock", "6331": "Man", "6332": "ician", "6333": " parliament", "6334": " household", "6335": " sym", "6336": " symbol", "6337": " deaths", "6338": " Sky", "6339": " Club", "6340": "86", "6341": " Walk", "6342": " anywhere", "6343": "oked", "6344": " prohib", "6345": " Far", "6346": " protests", "6347": "ican", "6348": " currency", "6349": " Maybe", "6350": " younger", "6351": " targets", "6352": "ena", "6353": " plot", "6354": " string", "6355": " importance", "6356": "ollywood", "6357": " defined", "6358": " Rights", "6359": " tow", "6360": " Ms", "6361": "dis", "6362": " Bob", "6363": " breaking", "6364": " bike", "6365": "onna", "6366": " manage", "6367": " rally", "6368": "Ob", "6369": " expression", "6370": " metal", "6371": " classic", "6372": " fraud", "6373": "ocket", "6374": "iques", "6375": " links", "6376": " cere", "6377": "hetic", "6378": " stores", "6379": "erences", "6380": " replaced", "6381": " snow", "6382": " Each", "6383": " doctors", "6384": " empt", "6385": " shif", "6386": "\u00f3", "6387": " buying", "6388": " nav", "6389": "See", "6390": " marketing", "6391": " facility", "6392": " Ram", "6393": " blow", "6394": " regulations", "6395": "west", "6396": "andal", "6397": " waste", "6398": " somewhat", "6399": "Pol", "6400": "IF", "6401": "pret", "6402": " favour", "6403": " opposite", "6404": " 37", "6405": "09", "6406": " allegedly", "6407": " schol", "6408": " laugh", "6409": " essential", "6410": " illust", "6411": " Houston", "6412": "cho", "6413": " bug", "6414": " promise", "6415": " holds", "6416": " Boy", "6417": " Colorado", "6418": " campus", "6419": " opponent", "6420": " versions", "6421": "ml", "6422": "agan", "6423": " hat", "6424": " motion", "6425": "OC", "6426": "\u00f6", "6427": " Year", "6428": "',", "6429": " DC", "6430": " moments", "6431": " hardware", "6432": " vice", "6433": " adults", "6434": "olve", "6435": " evolution", "6436": "inem", "6437": " relevant", "6438": " Elect", "6439": " rum", "6440": " bag", "6441": " sees", "6442": " zero", "6443": " adm", "6444": "08", "6445": " Brook", "6446": " hoping", "6447": " harder", "6448": " Exp", "6449": " closely", "6450": " chain", "6451": "opy", "6452": " fewer", "6453": "tering", "6454": "erves", "6455": " sick", "6456": " tom", "6457": " downt", "6458": " bon", "6459": "ometimes", "6460": " industrial", "6461": " acts", "6462": "oma", "6463": " Ann", "6464": "game", "6465": " volunte", "6466": "chen", "6467": " Er", "6468": "En", "6469": " Valley", "6470": " intention", "6471": "IR", "6472": " returns", "6473": " syn", "6474": "va", "6475": " mechanism", "6476": "ship", "6477": " acknowled", "6478": " hur", "6479": " participants", "6480": " Wik", "6481": "ittle", "6482": "ensus", "6483": " fashion", "6484": " customer", "6485": "greg", "6486": " mine", "6487": " CIA", "6488": " division", "6489": " squad", "6490": " Soviet", "6491": " Games", "6492": " isol", "6493": " emotional", "6494": "04", "6495": " immediate", "6496": " Hel", "6497": " YouTube", "6498": " grown", "6499": " Card", "6500": "NC", "6501": "etroit", "6502": " extent", "6503": "oming", "6504": "ulous", "6505": " batt", "6506": " circumstances", "6507": "ellect", "6508": "ORE", "6509": "07", "6510": " tournament", "6511": " 49", "6512": "ii", "6513": " Image", "6514": "ologist", "6515": "iger", "6516": " OF", "6517": " Gar", "6518": "", "6519": " suffering", "6520": "efully", "6521": " Die", "6522": "atell", "6523": " excellent", "6524": "06", "6525": " detailed", "6526": " wins", "6527": "Donald", "6528": " termin", "6529": " 38", "6530": " cycle", "6531": "alian", "6532": " wave", "6533": "certain", "6534": " cheap", "6535": "name", "6536": " ancient", "6537": " relationships", "6538": "str", "6539": " crazy", "6540": "friend", "6541": "pan", "6542": " describe", "6543": " Eric", "6544": " lies", "6545": " carrying", "6546": " fundamental", "6547": " kinds", "6548": "esc", "6549": " immigrants", "6550": " IP", "6551": " Jesus", "6552": " Palestinian", "6553": "ordan", "6554": " unus", "6555": "\u00fc", "6556": " tiny", "6557": "ayers", "6558": " guide", "6559": " decline", "6560": " featured", "6561": "kel", "6562": "print", "6563": "otal", "6564": " skill", "6565": " pip", "6566": " Long", "6567": " Mot", "6568": " earned", "6569": " authors", "6570": "nic", "6571": "style", "6572": " competitive", "6573": "ua", "6574": " trick", "6575": " strange", "6576": " artists", "6577": " acting", "6578": " instru", "6579": "FP", "6580": " formed", "6581": " efficient", "6582": "utch", "6583": " Watch", "6584": " cert", "6585": " Catholic", "6586": "ora", "6587": " pushing", "6588": " embr", "6589": " Ell", "6590": "ockey", "6591": " Cy", "6592": "nam", "6593": "Per", "6594": "awa", "6595": " manner", "6596": "chers", "6597": " regional", "6598": " sharing", "6599": " signing", "6600": " Gra", "6601": " comfortable", "6602": "umber", "6603": " referred", "6604": " frequently", "6605": " Putin", "6606": " owned", "6607": " controversial", "6608": " Econom", "6609": " ring", "6610": " Wild", "6611": " updated", "6612": " Home", "6613": " wire", "6614": "uated", "6615": " Davis", "6616": "bar", "6617": " alongside", "6618": " repeatedly", "6619": "hus", "6620": " hotel", "6621": " mouth", "6622": "02", "6623": " commitment", "6624": " 48", "6625": " meat", "6626": "", "6627": " attempted", "6628": " 34", "6629": " Cle", "6630": " Aut", "6631": " Way", "6632": " column", "6633": " Di", "6634": "weight", "6635": " Old", "6636": " NY", "6637": " upcoming", "6638": " egg", "6639": " Energy", "6640": " urban", "6641": "\u043e", "6642": "anes", "6643": " realized", "6644": " sentence", "6645": "uable", "6646": " femin", "6647": " schedule", "6648": " intent", "6649": "foot", "6650": " depth", "6651": " Sar", "6652": " dedicated", "6653": "iveness", "6654": "Despite", "6655": " Arizona", "6656": "xy", "6657": " Charles", "6658": "rome", "6659": "67", "6660": " struck", "6661": " suicide", "6662": "rison", "6663": "\ufffd", "6664": "bel", "6665": "amily", "6666": "rive", "6667": " liqu", "6668": " Right", "6669": "ceived", "6670": " pregn", "6671": "iami", "6672": "Like", "6673": " inspired", "6674": "ko", "6675": " universe", "6676": " Top", "6677": " walked", "6678": "Two", "6679": "DS", "6680": " Java", "6681": " targeted", "6682": "ographic", "6683": " Wars", "6684": "you", "6685": " pled", "6686": "ugh", "6687": " desk", "6688": "izz", "6689": "obb", "6690": " usual", "6691": " Dev", "6692": " journey", "6693": " opponents", "6694": " medic", "6695": " agenda", "6696": " orders", "6697": " assets", "6698": " causing", "6699": " newslet", "6700": " flu", "6701": " mainstream", "6702": " reput", "6703": " sister", "6704": " serving", "6705": "People", "6706": "aylor", "6707": " studio", "6708": " virtual", "6709": " Again", "6710": " Supp", "6711": "xual", "6712": " surveillance", "6713": " Down", "6714": " channel", "6715": " Defense", "6716": " Lord", "6717": " watched", "6718": "luding", "6719": " chairman", "6720": " transp", "6721": "adel", "6722": " overwhel", "6723": "burg", "6724": " surrounding", "6725": " Men", "6726": " coffee", "6727": " latter", "6728": "ati", "6729": " literally", "6730": " observed", "6731": " subsid", "6732": " sand", "6733": "azi", "6734": " posts", "6735": " Cruz", "6736": " Tal", "6737": " hall", "6738": " protected", "6739": ">>", "6740": " tort", "6741": "aze", "6742": " teachers", "6743": " knowing", "6744": " Van", "6745": " 75", "6746": " battery", "6747": " stream", "6748": " Young", "6749": "avor", "6750": " fasc", "6751": " precise", "6752": " approval", "6753": "May", "6754": " rape", "6755": " deeply", "6756": " king", "6757": "phy", "6758": " sending", "6759": " simpl", "6760": "%)", "6761": "ipl", "6762": " communication", "6763": " congress", "6764": "rence", "6765": " dealing", "6766": " wal", "6767": "iciency", "6768": " folks", "6769": " aside", "6770": " narr", "6771": " sky", "6772": " noticed", "6773": "iments", "6774": " remote", "6775": " exciting", "6776": " passion", "6777": " du", "6778": " fixed", "6779": "Or", "6780": " Py", "6781": " god", "6782": " basket", "6783": "Int", "6784": "mun", "6785": " format", "6786": " winter", "6787": "acking", "6788": " forth", "6789": " properties", "6790": "sole", "6791": "gor", "6792": "boy", "6793": " volume", "6794": "acc", "6795": " risks", "6796": " alive", "6797": " Jr", "6798": "03", "6799": " requirements", "6800": "rors", "6801": "Fr", "6802": " ", "6803": " crash", "6804": "ta", "6805": " refugees", "6806": " explore", "6807": "alle", "6808": " Pan", "6809": " Wat", "6810": " neut", "6811": "iro", "6812": " wake", "6813": " exhib", "6814": "LA", "6815": "ulture", "6816": "woman", "6817": " diet", "6818": "89", "6819": "allas", "6820": " unknown", "6821": "rations", "6822": "ensity", "6823": " anyway", "6824": " defeat", "6825": " Brad", "6826": " tested", "6827": "abis", "6828": " reward", "6829": "post", "6830": " 1970", "6831": " promised", "6832": " unemploy", "6833": " Tit", "6834": " narrow", "6835": " gang", "6836": "gery", "6837": " sweet", "6838": " gap", "6839": " Stephen", "6840": " mistake", "6841": " eating", "6842": " involving", "6843": " attacked", "6844": " Arch", "6845": " Max", "6846": "onymous", "6847": " height", "6848": " Fil", "6849": " west", "6850": " locations", "6851": " phenomen", "6852": " destroyed", "6853": " blame", "6854": "ether", "6855": " welcome", "6856": " Child", "6857": " wage", "6858": " selection", "6859": " properly", "6860": "ums", "6861": " extended", "6862": " proof", "6863": "ixt", "6864": " impressive", "6865": " puts", "6866": " suddenly", "6867": " Enter", "6868": " approximately", "6869": "apse", "6870": " Cast", "6871": " matches", "6872": " Polit", "6873": " territory", "6874": "anges", "6875": "oration", "6876": " sample", "6877": " Kevin", "6878": "ingu", "6879": " conver", "6880": " northern", "6881": " sustain", "6882": " Ins", "6883": "ocation", "6884": " dry", "6885": "igg", "6886": " protesters", "6887": "\u2019.", "6888": "stone", "6889": " discover", "6890": "ogan", "6891": " Fort", "6892": "arry", "6893": " slowly", "6894": " Miller", "6895": " Best", "6896": " merely", "6897": " pal", "6898": " franchise", "6899": " promote", "6900": " terrorism", "6901": " Women", "6902": " chose", "6903": " maximum", "6904": " wid", "6905": " typical", "6906": " teacher", "6907": "300", "6908": " sho", "6909": " license", "6910": " requests", "6911": " diagn", "6912": " selected", "6913": "59", "6914": "dro", "6915": "ao", "6916": " PR", "6917": "owered", "6918": " fuck", "6919": "obile", "6920": " shel", "6921": "lies", "6922": " oblig", "6923": " Wilson", "6924": " moder", "6925": " theme", "6926": " east", "6927": " disag", "6928": "verty", "6929": "lv", "6930": "aser", "6931": " Lu", "6932": " retire", "6933": "itarian", "6934": " worried", "6935": "fire", "6936": " recognize", "6937": "inson", "6938": " assume", "6939": " Stand", "6940": " Detroit", "6941": "list", "6942": "Rel", "6943": "asks", "6944": " topic", "6945": " Dam", "6946": "pool", "6947": "igure", "6948": " Agency", "6949": " deals", "6950": " supports", "6951": " confront", "6952": " Hollywood", "6953": " Camer", "6954": " poverty", "6955": " Class", "6956": " prote", "6957": " Mic", "6958": " abortion", "6959": " adapt", "6960": " likes", "6961": "VER", "6962": "po", "6963": " nomine", "6964": " rub", "6965": "John", "6966": " allies", "6967": " facilities", "6968": "Te", "6969": " Society", "6970": " Administ", "6971": " arguments", "6972": " item", "6973": " understood", "6974": "axy", "6975": "raid", "6976": " controlled", "6977": " fees", "6978": "CA", "6979": " PS", "6980": "uilding", "6981": " ped", "6982": " Four", "6983": "celer", "6984": " sole", "6985": " somehow", "6986": " constant", "6987": "aug", "6988": " resistance", "6989": " Jersey", "6990": "han", "6991": "57", "6992": "arity", "6993": " honor", "6994": " Italy", "6995": "GBT", "6996": " dress", "6997": " critics", "6998": "gender", "6999": " drag", "7000": " journalists", "7001": " phase", "7002": " Company", "7003": " scheme", "7004": " equival", "7005": " regions", "7006": " Land", "7007": " Ford", "7008": "aire", "7009": " communications", "7010": " village", "7011": "asts", "7012": "osis", "7013": " bunch", "7014": " stim", "7015": "alo", "7016": " obtained", "7017": "lls", "7018": " limits", "7019": " personally", "7020": "</", "7021": " punish", "7022": " exposed", "7023": " Spanish", "7024": " evil", "7025": " champion", "7026": "redit", "7027": " thread", "7028": " Dun", "7029": " strongly", "7030": " Carl", "7031": "rimination", "7032": " falling", "7033": " deck", "7034": " somewhere", "7035": "pes", "7036": "cers", "7037": "cript", "7038": " Ok", "7039": " condem", "7040": " vacc", "7041": " 00", "7042": "orted", "7043": " profit", "7044": "cow", "7045": " Night", "7046": " Kn", "7047": " escape", "7048": " definition", "7049": " harass", "7050": " comparison", "7051": " empty", "7052": "sters", "7053": "oster", "7054": " Georgia", "7055": " NASA", "7056": " polls", "7057": "owa", "7058": " meetings", "7059": " encourage", "7060": " flex", "7061": " winner", "7062": "enders", "7063": " emissions", "7064": " truck", "7065": " decent", "7066": " database", "7067": " pic", "7068": "pected", "7069": " Miami", "7070": " cutting", "7071": "oric", "7072": " bear", "7073": "iform", "7074": " bid", "7075": " Love", "7076": "wan", "7077": " southern", "7078": "ura", "7079": "68", "7080": " comprom", "7081": " Asian", "7082": " employee", "7083": " Network", "7084": "mod", "7085": " trees", "7086": "ciples", "7087": " desper", "7088": "zens", "7089": " Despite", "7090": "nesota", "7091": " hits", "7092": "aun", "7093": "intend", "7094": " anx", "7095": " stronger", "7096": " goods", "7097": " NHL", "7098": " gotten", "7099": " Daniel", "7100": " Irish", "7101": " Cam", "7102": "CS", "7103": "CE", "7104": " purposes", "7105": "mo", "7106": " ideal", "7107": " directed", "7108": "igation", "7109": "ads", "7110": " deleg", "7111": " End", "7112": " inqu", "7113": " Labor", "7114": " claiming", "7115": " bench", "7116": "UR", "7117": " Dar", "7118": " View", "7119": " intellect", "7120": " Nations", "7121": " finds", "7122": " 39", "7123": "iner", "7124": " chosen", "7125": " fifth", "7126": " soul", "7127": " officially", "7128": "rary", "7129": " colon", "7130": " icon", "7131": " electricity", "7132": " developer", "7133": " driven", "7134": " fold", "7135": " amounts", "7136": " extensive", "7137": " CD", "7138": "", "7139": " stretch", "7140": "icken", "7141": " ties", "7142": " Bell", "7143": " ruled", "7144": "Any", "7145": " drawn", "7146": " Thank", "7147": "sea", "7148": " incl", "7149": " sight", "7150": " payments", "7151": "eping", "7152": "owed", "7153": "asters", "7154": " Cat", "7155": "ras", "7156": " threatened", "7157": " ending", "7158": " retain", "7159": " DNA", "7160": " dogs", "7161": " reasonable", "7162": " Inf", "7163": "EW", "7164": " rejected", "7165": "unning", "7166": " perfectly", "7167": " distinct", "7168": " aspects", "7169": " spin", "7170": " Jordan", "7171": " captured", "7172": " answers", "7173": " somebody", "7174": " engage", "7175": " param", "7176": " Sk", "7177": " Though", "7178": " primarily", "7179": " constantly", "7180": "Com", "7181": " OS", "7182": "lder", "7183": " trading", "7184": " fighters", "7185": " Sea", "7186": " admit", "7187": " Real", "7188": " Attorney", "7189": " Light", "7190": " ble", "7191": " seats", "7192": "lock", "7193": "regon", "7194": "69", "7195": " rig", "7196": "Police", "7197": " fields", "7198": " choices", "7199": " houses", "7200": " Gall", "7201": " Services", "7202": "zy", "7203": " parking", "7204": " anymore", "7205": " tank", "7206": " estimates", "7207": " rival", "7208": " flying", "7209": " boot", "7210": " pod", "7211": "fast", "7212": " Turk", "7213": " constit", "7214": " solutions", "7215": " technologies", "7216": "irms", "7217": " Disney", "7218": " regularly", "7219": " elsewhere", "7220": " courts", "7221": " Dark", "7222": "imp", "7223": " resulting", "7224": " MS", "7225": "Once", "7226": " Lew", "7227": "sm", "7228": " payment", "7229": " actor", "7230": " contem", "7231": " narrative", "7232": " nobody", "7233": " employment", "7234": " outcome", "7235": " encoun", "7236": "apes", "7237": " exists", "7238": " Hun", "7239": " province", "7240": " Where", "7241": "hips", "7242": " awesome", "7243": " brew", "7244": " Academ", "7245": "isan", "7246": " profile", "7247": " keeps", "7248": " controls", "7249": "inations", "7250": " Scotland", "7251": " murd", "7252": " components", "7253": " mixed", "7254": " Water", "7255": " contributed", "7256": " letters", "7257": " Ut", "7258": "MS", "7259": " Victor", "7260": " mayor", "7261": " signal", "7262": " worldwide", "7263": " apartment", "7264": "otten", "7265": " Bowl", "7266": " Brian", "7267": "87", "7268": "agram", "7269": " Author", "7270": " Adam", "7271": " situations", "7272": " Bru", "7273": " incredible", "7274": "iana", "7275": "onic", "7276": " founder", "7277": " Bas", "7278": "Dr", "7279": "earing", "7280": " concluded", "7281": "ali", "7282": " Organ", "7283": " baseball", "7284": "vy", "7285": " Steven", "7286": " clients", "7287": " enemies", "7288": " Tw", "7289": " coalition", "7290": " Moore", "7291": " Championship", "7292": "icer", "7293": " bills", "7294": " atmosphere", "7295": " weird", "7296": " Id", "7297": "emen", "7298": "Also", "7299": " crucial", "7300": " kil", "7301": " loan", "7302": " Rog", "7303": " Turn", "7304": "MP", "7305": " continuing", "7306": " registered", "7307": " upper", "7308": "........", "7309": " 400", "7310": " incredibly", "7311": " accurate", "7312": " demands", "7313": " unp", "7314": " 42", "7315": " informed", "7316": "Today", "7317": " Constitution", "7318": "inity", "7319": " feedback", "7320": "cr", "7321": " enthus", "7322": " tied", "7323": "acked", "7324": "mont", "7325": " assistant", "7326": " drinking", "7327": " conscious", "7328": " reporter", "7329": "inding", "7330": " Southern", "7331": " angry", "7332": " category", "7333": " proved", "7334": "otes", "7335": " stead", "7336": " stuck", "7337": " terrible", "7338": " routine", "7339": "there", "7340": "Sec", "7341": " generate", "7342": " Italian", "7343": " explanation", "7344": "ilarly", "7345": " Conf", "7346": " conven", "7347": " ticket", "7348": ".\"[", "7349": " imper", "7350": "era", "7351": " infect", "7352": " dozen", "7353": " machines", "7354": " rus", "7355": " Civil", "7356": " AL", "7357": " Spain", "7358": "ez", "7359": " returning", "7360": " raising", "7361": " innoc", "7362": "iscal", "7363": " newly", "7364": "onsin", "7365": "rates", "7366": " writers", "7367": " aggressive", "7368": " represented", "7369": " Ep", "7370": " 55", "7371": " conclusion", "7372": "sell", "7373": " Joseph", "7374": " recovery", "7375": "rage", "7376": " manip", "7377": "isconsin", "7378": " excess", "7379": " Thanks", "7380": " gaming", "7381": "ker", "7382": " Dallas", "7383": " paint", "7384": " consumption", "7385": " Program", "7386": " compens", "7387": " %", "7388": "adelph", "7389": " estate", "7390": "lers", "7391": "aron", "7392": " penalty", "7393": " AR", "7394": " myth", "7395": " gro", "7396": "Off", "7397": " dollar", "7398": " roster", "7399": " programming", "7400": " organized", "7401": "bal", "7402": " interpret", "7403": " capture", "7404": "rypt", "7405": " conspir", "7406": " complaint", "7407": " Test", "7408": "anchester", "7409": "essed", "7410": "ria", "7411": " Educ", "7412": " complicated", "7413": " origin", "7414": "anny", "7415": "ifications", "7416": "Because", "7417": " tall", "7418": " satell", "7419": " granted", "7420": " Win", "7421": "rep", "7422": " ($", "7423": " chances", "7424": " assistance", "7425": " magic", "7426": " Sn", "7427": " SC", "7428": " Gi", "7429": " county", "7430": " plastic", "7431": "star", "7432": " sympt", "7433": " pilot", "7434": "uan", "7435": " habit", "7436": " nut", "7437": " audio", "7438": "ima", "7439": " shares", "7440": " Minnesota", "7441": "adelphia", "7442": " bitcoin", "7443": " therap", "7444": "rating", "7445": " successfully", "7446": " 65", "7447": "urb", "7448": "ML", "7449": " Tem", "7450": " Oper", "7451": " iron", "7452": " root", "7453": "Ed", "7454": " techniques", "7455": " Hot", "7456": "actions", "7457": " lawmakers", "7458": "Inst", "7459": "ked", "7460": "hent", "7461": "gorith", "7462": " Cross", "7463": " veteran", "7464": "ifer", "7465": "rete", "7466": " degrees", "7467": "esy", "7468": " Zeal", "7469": " anticip", "7470": " automatically", "7471": " Os", "7472": " Contin", "7473": " scenes", "7474": " hel", "7475": "========", "7476": " Pacific", "7477": " Parliament", "7478": " ru", "7479": " Coll", "7480": " engaged", "7481": " Roman", "7482": " extract", "7483": " operate", "7484": "itals", "7485": " aimed", "7486": " Care", "7487": "inder", "7488": " taught", "7489": " phr", "7490": "chain", "7491": " survive", "7492": " blocks", "7493": "idency", "7494": " teaching", "7495": "aed", "7496": " permanent", "7497": "thew", "7498": " ads", "7499": " installed", "7500": " titles", "7501": " Fre", "7502": " monit", "7503": " solve", "7504": "Col", "7505": " Senator", "7506": " Special", "7507": " 1999", "7508": " attended", "7509": " 64", "7510": " western", "7511": " Foreign", "7512": "ba", "7513": " extrem", "7514": " pin", "7515": " NBC", "7516": " marked", "7517": " IT", "7518": "itar", "7519": " academic", "7520": " accomp", "7521": " Taylor", "7522": " Ah", "7523": " index", "7524": " valuable", "7525": " rating", "7526": "rific", "7527": " vulnerable", "7528": " cup", "7529": "everal", "7530": "%.", "7531": "abama", "7532": " taste", "7533": " hidden", "7534": " uncertain", "7535": " lawyers", "7536": "56", "7537": " fake", "7538": " Balt", "7539": " Linux", "7540": " Business", "7541": " Look", "7542": "HS", "7543": " bom", "7544": "uine", "7545": " privile", "7546": " worker", "7547": "))", "7548": " Nick", "7549": " depending", "7550": " LGBT", "7551": " enable", "7552": " regardless", "7553": "ibilities", "7554": " compre", "7555": " dict", "7556": " collected", "7557": " championship", "7558": " pace", "7559": " passes", "7560": "reams", "7561": " downtown", "7562": " afraid", "7563": "this", "7564": " visited", "7565": " Kelly", "7566": "athy", "7567": "ashes", "7568": " inspir", "7569": " cable", "7570": " recording", "7571": " 150", "7572": " overse", "7573": " warming", "7574": " advis", "7575": " sufficient", "7576": " reputation", "7577": " surgery", "7578": " tracks", "7579": " elite", "7580": "Getty", "7581": " Dead", "7582": " Tony", "7583": " bes", "7584": "ules", "7585": " disaster", "7586": " enjoyed", "7587": "da", "7588": " Moscow", "7589": " comic", "7590": " elev", "7591": " equivalent", "7592": " Avenue", "7593": " thin", "7594": "aturally", "7595": " racial", "7596": " apolog", "7597": " principles", "7598": " busy", "7599": "etary", "7600": " exposure", "7601": " Bull", "7602": " Anth", "7603": "EA", "7604": " phones", "7605": "199", "7606": " shit", "7607": "mal", "7608": " generated", "7609": " processes", "7610": " portion", "7611": "month", "7612": " Still", "7613": " Series", "7614": " prominent", "7615": " troub", "7616": " Nation", "7617": " crypt", "7618": "\u2019,", "7619": " spr", "7620": " Ray", "7621": " Coast", "7622": " intense", "7623": " negotiations", "7624": " personnel", "7625": "from", "7626": " mainly", "7627": " duty", "7628": "active", "7629": " entit", "7630": " grant", "7631": " Oregon", "7632": " Josh", "7633": " defence", "7634": " Eastern", "7635": "quarters", "7636": " Viet", "7637": " gall", "7638": " Invest", "7639": " resulted", "7640": " funny", "7641": "world", "7642": " neuro", "7643": "mann", "7644": "prise", "7645": " Take", "7646": " pounds", "7647": " Lo", "7648": "fall", "7649": "Pr", "7650": " Call", "7651": "bro", "7652": "", "7653": " chat", "7654": "front", "7655": " extension", "7656": " unusual", "7657": " mail", "7658": " emerged", "7659": " describes", "7660": " brut", "7661": " engineering", "7662": " patterns", "7663": "ye", "7664": " Kurd", "7665": " \u2019", "7666": "iler", "7667": " adopted", "7668": "400", "7669": " Come", "7670": " compete", "7671": " everywhere", "7672": "78", "7673": "orne", "7674": " Iowa", "7675": "upid", "7676": " fought", "7677": "icate", "7678": "Mean", "7679": " Mu", "7680": " blind", "7681": " discipl", "7682": "Rec", "7683": " possession", "7684": " taxp", "7685": "HA", "7686": " hadn", "7687": "raph", "7688": " coordin", "7689": " explicit", "7690": " Zealand", "7691": " dim", "7692": " Kent", "7693": " medium", "7694": " feelings", "7695": "rell", "7696": "cling", "7697": " corruption", "7698": " Has", "7699": " browser", "7700": "log", "7701": "ATE", "7702": "antic", "7703": " Veg", "7704": "gun", "7705": " Before", "7706": "tes", "7707": " propag", "7708": " Food", "7709": " Greek", "7710": "cles", "7711": "scape", "7712": "text", "7713": " sanctions", "7714": " cited", "7715": " stations", "7716": " enorm", "7717": " contracts", "7718": " rarely", "7719": " thick", "7720": " Ol", "7721": "LC", "7722": " recru", "7723": "viously", "7724": "ilton", "7725": " Policy", "7726": " minority", "7727": " inev", "7728": " expectations", "7729": "herent", "7730": "olt", "7731": " Saf", "7732": " Northern", "7733": " Ger", "7734": " Mars", "7735": " cameras", "7736": "orough", "7737": " shortly", "7738": " recip", "7739": "idelines", "7740": "istent", "7741": " sup", "7742": " strict", "7743": " Wisconsin", "7744": "ifies", "7745": " thousand", "7746": " firms", "7747": " finance", "7748": " scenario", "7749": " ho", "7750": "Co", "7751": " Navy", "7752": " Ali", "7753": "making", "7754": "inking", "7755": " permission", "7756": " visible", "7757": " implementation", "7758": "obs", "7759": " lights", "7760": " tor", "7761": " participate", "7762": " mel", "7763": " advertising", "7764": "54", "7765": " loud", "7766": " priority", "7767": " wing", "7768": "ystem", "7769": "52", "7770": " unw", "7771": " Rick", "7772": " Global", "7773": " acceler", "7774": "eland", "7775": "cus", "7776": "ni", "7777": "ref", "7778": " plug", "7779": " Amendment", "7780": "BO", "7781": " ven", "7782": "azz", "7783": " losses", "7784": " Henry", "7785": "ogen", "7786": " Philadelphia", "7787": " photograph", "7788": " Hom", "7789": " bridge", "7790": "::", "7791": " Foot", "7792": " affili", "7793": "58", "7794": "Mar", "7795": "enth", "7796": "urrent", "7797": "who", "7798": " historic", "7799": " shock", "7800": "abs", "7801": " creates", "7802": " strikes", "7803": " laid", "7804": "ogether", "7805": " Ash", "7806": " dozens", "7807": " Live", "7808": "amber", "7809": " Development", "7810": " computers", "7811": " veget", "7812": "car", "7813": " obst", "7814": " 44", "7815": "found", "7816": " airport", "7817": "osexual", "7818": "athered", "7819": " Pay", "7820": " uncom", "7821": " Vis", "7822": "Us", "7823": " tag", "7824": " clubs", "7825": " founded", "7826": " counsel", "7827": "uer", "7828": " ESP", "7829": " behalf", "7830": "asion", "7831": "weet", "7832": " scoring", "7833": "aska", "7834": " 47", "7835": " yield", "7836": " Greg", "7837": " agric", "7838": " wonderful", "7839": " formal", "7840": " Oak", "7841": " algorith", "7842": "izon", "7843": " gained", "7844": " fee", "7845": "elect", "7846": " principle", "7847": " episodes", "7848": " fault", "7849": " toler", "7850": " basketball", "7851": "igen", "7852": "she", "7853": " genuine", "7854": " manufacturing", "7855": "jo", "7856": " interface", "7857": " AD", "7858": " Hit", "7859": "++", "7860": "UL", "7861": " HT", "7862": " pump", "7863": " component", "7864": " Major", "7865": " establishment", "7866": "ounced", "7867": " ridic", "7868": " Snow", "7869": " Emp", "7870": " cyber", "7871": "profit", "7872": "umin", "7873": " relief", "7874": "umer", "7875": "arlier", "7876": "53", "7877": " gift", "7878": "Before", "7879": " philosophy", "7880": " Royal", "7881": " hole", "7882": " uniform", "7883": " saved", "7884": " magn", "7885": "imore", "7886": " stable", "7887": " Premier", "7888": " Alabama", "7889": "etime", "7890": " Mid", "7891": "olis", "7892": "lete", "7893": " Key", "7894": "pread", "7895": "Meanwhile", "7896": "opher", "7897": " foundation", "7898": " drawing", "7899": " Review", "7900": " journalist", "7901": " Thus", "7902": " exception", "7903": "rators", "7904": " stadium", "7905": " Fred", "7906": "ilipp", "7907": "rative", "7908": "lan", "7909": " ju", "7910": " wheel", "7911": " headed", "7912": "aus", "7913": " borrow", "7914": " struggling", "7915": " spark", "7916": " crop", "7917": " footage", "7918": " edition", "7919": " SP", "7920": " recognized", "7921": " indicate", "7922": " Moh", "7923": " Kingdom", "7924": "ami", "7925": " doors", "7926": " banned", "7927": " cannabis", "7928": " AS", "7929": " Jac", "7930": " Three", "7931": " Kir", "7932": " sharp", "7933": "uce", "7934": " rely", "7935": " Manchester", "7936": " legend", "7937": "51", "7938": "bell", "7939": "ja", "7940": " profession", "7941": "ependent", "7942": " beliefs", "7943": " roles", "7944": " plate", "7945": " Arm", "7946": "portion", "7947": "Ne", "7948": " stab", "7949": " Rand", "7950": " synt", "7951": "aning", "7952": "idespread", "7953": " backed", "7954": " 1960", "7955": " Ret", "7956": " containing", "7957": " withdraw", "7958": " neutral", "7959": "eman", "7960": "mate", "7961": " dinner", "7962": " Administration", "7963": "teen", "7964": "oured", "7965": " neighb", "7966": " liked", "7967": " ships", "7968": " entering", "7969": " producer", "7970": "ca", "7971": " hang", "7972": " cha", "7973": " Report", "7974": " McG", "7975": " achieved", "7976": " river", "7977": " flaw", "7978": "EP", "7979": " movements", "7980": " deliber", "7981": " gonna", "7982": "ulating", "7983": " tackle", "7984": " reduction", "7985": "uper", "7986": " hired", "7987": " walls", "7988": "etts", "7989": "Those", "7990": " ->", "7991": " farmers", "7992": " FC", "7993": " arrange", "7994": " Atlanta", "7995": " Ott", "7996": " Jason", "7997": " finger", "7998": " destruction", "7999": "iel", "8000": "RS", "8001": " Academy", "8002": " 41", "8003": "burgh", "8004": "rous", "8005": " Conference", "8006": " Diego", "8007": " Note", "8008": " Mir", "8009": " interviews", "8010": " 1998", "8011": " nominee", "8012": " bath", "8013": " languages", "8014": "________________", "8015": "79", "8016": "sylv", "8017": " barely", "8018": "interest", "8019": " Point", "8020": "cription", "8021": " discrimination", "8022": " Fund", "8023": " aver", "8024": "osa", "8025": " Nob", "8026": " Centre", "8027": "aching", "8028": " structures", "8029": " proven", "8030": " incent", "8031": " forever", "8032": " delivery", "8033": "Post", "8034": " tox", "8035": " convin", "8036": " VR", "8037": "away", "8038": " Fair", "8039": " processing", "8040": " contained", "8041": " 43", "8042": " Did", "8043": " Education", "8044": " challenging", "8045": " Perhaps", "8046": "oen", "8047": " Reuters", "8048": " upset", "8049": "Me", "8050": " Harry", "8051": "riers", "8052": " euro", "8053": " convicted", "8054": " unex", "8055": " ocean", "8056": "aying", "8057": "ATO", "8058": " Field", "8059": " ren", "8060": " Bry", "8061": "then", "8062": "olen", "8063": " rose", "8064": " producing", "8065": " Pack", "8066": " Pen", "8067": " technique", "8068": " About", "8069": " Data", "8070": " Turkish", "8071": " restrictions", "8072": "PG", "8073": " hitting", "8074": "ls", "8075": " Fed", "8076": "usive", "8077": " retired", "8078": " intellectual", "8079": "enny", "8080": " illness", "8081": "isp", "8082": "President", "8083": "abinet", "8084": " Radio", "8085": "lad", "8086": " asks", "8087": "sylvania", "8088": " util", "8089": " indicated", "8090": " electronic", "8091": "%,", "8092": "amsung", "8093": "Star", "8094": " smooth", "8095": " hide", "8096": " description", "8097": " rapidly", "8098": "owing", "8099": " Hay", "8100": " Hor", "8101": " Division", "8102": " corporations", "8103": " reviews", "8104": " Christians", "8105": " suggesting", "8106": "yard", "8107": " Hard", "8108": "Who", "8109": "PM", "8110": " Sat", "8111": " begun", "8112": " Mayor", "8113": " notion", "8114": "power", "8115": " exclusive", "8116": " Judge", "8117": "ologists", "8118": " flash", "8119": "ho", "8120": "iti", "8121": " branch", "8122": " bra", "8123": " recognition", "8124": "ikes", "8125": "page", "8126": " normally", "8127": " perpet", "8128": " equally", "8129": " widespread", "8130": " OK", "8131": "lessly", "8132": " loyal", "8133": "engers", "8134": " Rose", "8135": "ouver", "8136": " NC", "8137": " tickets", "8138": " CO", "8139": "74", "8140": " external", "8141": " Market", "8142": " listening", "8143": " burd", "8144": " Ref", "8145": "rik", "8146": "76", "8147": " reaching", "8148": " Circ", "8149": " 2019", "8150": "udes", "8151": "iy", "8152": " contribute", "8153": " 46", "8154": " websites", "8155": " friendly", "8156": " grass", "8157": " McCain", "8158": "Sub", "8159": "uma", "8160": " AND", "8161": " invent", "8162": " representative", "8163": " collapse", "8164": "Look", "8165": "achus", "8166": "ione", "8167": " robot", "8168": "https", "8169": " settlement", "8170": " progressive", "8171": "elf", "8172": " hardly", "8173": " Arabia", "8174": "usted", "8175": " Next", "8176": " campaigns", "8177": "arrass", "8178": " UFC", "8179": "Dav", "8180": " mo", "8181": "rical", "8182": " viewers", "8183": "rient", "8184": " terrorists", "8185": " practical", "8186": " welf", "8187": " prepare", "8188": " bail", "8189": "appy", "8190": "sels", "8191": " carefully", "8192": "omething", "8193": "core", "8194": " smoke", "8195": " reducing", "8196": " exceed", "8197": " array", "8198": "thon", "8199": " frag", "8200": " Music", "8201": " Kansas", "8202": " unclear", "8203": " Battle", "8204": " Nic", "8205": " Beach", "8206": " Ont", "8207": " Dig", "8208": " welfare", "8209": " Further", "8210": "Ref", "8211": " ethnic", "8212": "imm", "8213": " overwhelming", "8214": " minds", "8215": " sensitive", "8216": " Luc", "8217": " initiative", "8218": "nedy", "8219": " respectively", "8220": " hook", "8221": " Lind", "8222": " tail", "8223": " racist", "8224": " ABC", "8225": " Ly", "8226": " recover", "8227": " Rus", "8228": "bec", "8229": " deputy", "8230": " association", "8231": " involvement", "8232": " fiscal", "8233": "ancouver", "8234": "rolled", "8235": " thrown", "8236": " Ice", "8237": "Mc", "8238": "igrant", "8239": " convinced", "8240": "dem", "8241": " lists", "8242": " Tenn", "8243": " milk", "8244": "anna", "8245": "umes", "8246": "uties", "8247": " ESPN", "8248": "UN", "8249": " Bernie", "8250": " devast", "8251": "ifest", "8252": " vital", "8253": " featuring", "8254": "Back", "8255": " Sir", "8256": "ecut", "8257": " vary", "8258": " connections", "8259": "fr", "8260": " elig", "8261": "bn", "8262": " SS", "8263": "72", "8264": " Latin", "8265": " framework", "8266": "heast", "8267": "??", "8268": "rator", "8269": " Full", "8270": " deeper", "8271": " statistics", "8272": " fantasy", "8273": " Gov", "8274": " invited", "8275": " Mah", "8276": " unemployment", "8277": " investigate", "8278": " remem", "8279": "unior", "8280": " improvements", "8281": " behaviour", "8282": " sugar", "8283": " strategic", "8284": " joining", "8285": " anybody", "8286": " complaints", "8287": " wine", "8288": " luck", "8289": "achusetts", "8290": " Little", "8291": " menu", "8292": " constitutional", "8293": " steal", "8294": "iversary", "8295": " Pit", "8296": "ouch", "8297": " NSA", "8298": " independence", "8299": " scores", "8300": " wars", "8301": " HD", "8302": " Ministry", "8303": " anger", "8304": "worth", "8305": " define", "8306": " subjects", "8307": " Brew", "8308": "pload", "8309": " screens", "8310": " Pennsylvania", "8311": " noise", "8312": " scholars", "8313": "Will", "8314": " roads", "8315": " Town", "8316": "een", "8317": " jury", "8318": " fiction", "8319": " Never", "8320": " touchdown", "8321": " Es", "8322": "\u2014\u2014\u2014\u2014", "8323": "Under", "8324": " citizen", "8325": " Kat", "8326": " Square", "8327": " ownership", "8328": " trained", "8329": " failing", "8330": "osit", "8331": " gear", "8332": "leveland", "8333": " Ult", "8334": " alien", "8335": " discovery", "8336": " lobby", "8337": "ihad", "8338": "inois", "8339": " Anton", "8340": " gathered", "8341": "oding", "8342": " controversy", "8343": " fears", "8344": "RI", "8345": " implemented", "8346": " comprehens", "8347": "FF", "8348": "icking", "8349": " wages", "8350": " inject", "8351": " Brother", "8352": " scandal", "8353": " cos", "8354": " licens", "8355": " democratic", "8356": "Che", "8357": " register", "8358": " fab", "8359": " captain", "8360": " overt", "8361": " collective", "8362": "mad", "8363": " serves", "8364": " Museum", "8365": " ON", "8366": " ultimate", "8367": " tip", "8368": " incorpor", "8369": " soph", "8370": " Community", "8371": " stupid", "8372": " neighbour", "8373": " peak", "8374": " transgender", "8375": " prosec", "8376": " Information", "8377": " referring", "8378": " disagree", "8379": "\")", "8380": "type", "8381": " temporary", "8382": " Ale", "8383": " legs", "8384": " Medical", "8385": " versus", "8386": " handful", "8387": "agg", "8388": " 1996", "8389": " Jay", "8390": " awareness", "8391": " recommended", "8392": " Xbox", "8393": "mary", "8394": " symptoms", "8395": " reven", "8396": " platforms", "8397": " Core", "8398": "cific", "8399": " casual", "8400": " rural", "8401": " reprodu", "8402": "angel", "8403": " testim", "8404": " remarks", "8405": " tasks", "8406": " Cameron", "8407": " accus", "8408": " attempting", "8409": " dynamic", "8410": "GE", "8411": " attacking", "8412": "hour", "8413": " Professor", "8414": " tone", "8415": " Action", "8416": " heading", "8417": " discussions", "8418": " Vegas", "8419": " sin", "8420": " suffer", "8421": " regulation", "8422": " visitors", "8423": " Allen", "8424": "case", "8425": " layer", "8426": " Patrick", "8427": "stract", "8428": "'.", "8429": " samples", "8430": " Santa", "8431": " spaces", "8432": " Pent", "8433": " Make", "8434": " www", "8435": "acon", "8436": " ingred", "8437": " civilians", "8438": " estimate", "8439": " Matthew", "8440": " Walker", "8441": " Ren", "8442": " Budd", "8443": " logic", "8444": " expanded", "8445": "Sm", "8446": "Script", "8447": " III", "8448": " Spring", "8449": " ignore", "8450": " publication", "8451": "phones", "8452": " poly", "8453": "icket", "8454": "aka", "8455": " theat", "8456": " Ball", "8457": "aret", "8458": " Queen", "8459": "including", "8460": "GO", "8461": " extend", "8462": " genetic", "8463": " Anthony", "8464": " liquid", "8465": " attached", "8466": " Philipp", "8467": "gener", "8468": "RC", "8469": " settings", "8470": "About", "8471": " neck", "8472": " eastern", "8473": " hypot", "8474": "itionally", "8475": " Stone", "8476": " Albert", "8477": " grounds", "8478": "News", "8479": " displ", "8480": " raw", "8481": " brill", "8482": " purchased", "8483": "alling", "8484": "PC", "8485": " enormous", "8486": " Cook", "8487": " \u20ac", "8488": "Ass", "8489": " 1997", "8490": "ommod", "8491": " sorry", "8492": " Check", "8493": " History", "8494": " Guardian", "8495": " affairs", "8496": " entertainment", "8497": "ictions", "8498": " suspected", "8499": " tweeted", "8500": " factory", "8501": " resource", "8502": " ranked", "8503": " holiday", "8504": " Baltimore", "8505": " Ap", "8506": " horse", "8507": " Gaza", "8508": "esh", "8509": " brothers", "8510": " Austin", "8511": " actors", "8512": "", "8513": " stake", "8514": " viewed", "8515": " legitimate", "8516": "serv", "8517": " intervention", "8518": " API", "8519": " Stat", "8520": " improvement", "8521": " rational", "8522": " Columbia", "8523": "lah", "8524": " races", "8525": " activist", "8526": ".-", "8527": " Golden", "8528": "Where", "8529": " Conservative", "8530": "intendo", "8531": " Greece", "8532": "iry", "8533": " cro", "8534": "ultural", "8535": "arms", "8536": "Sen", "8537": " seemingly", "8538": " outs", "8539": "800", "8540": " Such", "8541": " involves", "8542": "repre", "8543": " presum", "8544": " humanity", "8545": " investigating", "8546": " opinions", "8547": " fallen", "8548": " coaches", "8549": " dramatic", "8550": " tomorrow", "8551": " embarrass", "8552": "oval", "8553": " investigators", "8554": " rook", "8555": "iverpool", "8556": " substantial", "8557": "bi", "8558": " Massachusetts", "8559": " salary", "8560": " diversity", "8561": " Chair", "8562": "otype", "8563": "rec", "8564": " Stadium", "8565": " absence", "8566": "ourse", "8567": " covers", "8568": " forest", "8569": " boat", "8570": "geon", "8571": "ective", "8572": " Season", "8573": " Roy", "8574": " referend", "8575": " medicine", "8576": "FA", "8577": " loans", "8578": " offices", "8579": " fulf", "8580": " Acc", "8581": " suspended", "8582": " advocates", "8583": "inf", "8584": "quest", "8585": " Pot", "8586": " stayed", "8587": " gam", "8588": " conspiracy", "8589": " Head", "8590": " Revolution", "8591": " providers", "8592": "reprene", "8593": " monitor", "8594": " km", "8595": "dit", "8596": " celeb", "8597": " cogn", "8598": "cover", "8599": " Kennedy", "8600": " resign", "8601": " chapter", "8602": " papers", "8603": " Iranian", "8604": " bars", "8605": " jur", "8606": "isting", "8607": " overs", "8608": " 52", "8609": " Ho", "8610": "xit", "8611": "Russ", "8612": " careful", "8613": " amid", "8614": " WW", "8615": "claim", "8616": " bureau", "8617": " iOS", "8618": " Control", "8619": "ammed", "8620": "wered", "8621": " foss", "8622": " Tri", "8623": " ham", "8624": "dri", "8625": " disrupt", "8626": "ixed", "8627": " authent", "8628": " porn", "8629": " Ross", "8630": " preced", "8631": " consistently", "8632": "EST", "8633": " transportation", "8634": " shr", "8635": " CBS", "8636": " throwing", "8637": " Anderson", "8638": " depends", "8639": "rets", "8640": "mat", "8641": " addressed", "8642": " coc", "8643": "\u0092", "8644": " pref", "8645": "Related", "8646": " colors", "8647": " personality", "8648": "uction", "8649": " mining", "8650": "\u043b", "8651": "vard", "8652": " iP", "8653": " Tro", "8654": " attitude", "8655": " handed", "8656": "unes", "8657": " missile", "8658": " petition", "8659": " inflation", "8660": "ipal", "8661": " reads", "8662": " clothes", "8663": " noting", "8664": " Vancouver", "8665": " mountain", "8666": " surf", "8667": " virtually", "8668": " je", "8669": "Both", "8670": " fruit", "8671": "Ste", "8672": " Ra", "8673": " Freedom", "8674": "icity", "8675": " conversations", "8676": "63", "8677": "iences", "8678": " steel", "8679": "keep", "8680": "plete", "8681": "hot", "8682": " Mean", "8683": "ila", "8684": " warrant", "8685": " speaks", "8686": "ordon", "8687": "!)", "8688": " profits", "8689": " conce", "8690": " lowest", "8691": " gains", "8692": " Hospital", "8693": "Part", "8694": " Share", "8695": " shoulder", "8696": "iability", "8697": " guest", "8698": " horror", "8699": "maker", "8700": " fantastic", "8701": " closing", "8702": " tries", "8703": "scale", "8704": " Family", "8705": " astron", "8706": "des", "8707": " reader", "8708": "ropri", "8709": " spiritual", "8710": " appreciate", "8711": "ivals", "8712": " wrest", "8713": " entr", "8714": "flix", "8715": " Cleveland", "8716": " contributions", "8717": " incidents", "8718": "plate", "8719": " Illinois", "8720": " Intelligence", "8721": " accommod", "8722": "EE", "8723": "inch", "8724": " Cre", "8725": " handling", "8726": " Broad", "8727": " stone", "8728": "zed", "8729": " guarantee", "8730": " marks", "8731": "uits", "8732": "ppers", "8733": "73", "8734": " depression", "8735": " Bang", "8736": " tea", "8737": "\".[", "8738": " Environment", "8739": "61", "8740": " protocol", "8741": "amac", "8742": " voter", "8743": " Howard", "8744": " hint", "8745": " drew", "8746": " dance", "8747": " Las", "8748": " rhet", "8749": " subsequent", "8750": " ballot", "8751": " photograp", "8752": " maps", "8753": " encouraged", "8754": "uted", "8755": " ranks", "8756": " lucky", "8757": " spoken", "8758": " swing", "8759": "aval", "8760": "senal", "8761": " inner", "8762": "pat", "8763": " promises", "8764": " Engine", "8765": " Lewis", "8766": " bacter", "8767": "Note", "8768": " covering", "8769": " console", "8770": " lands", "8771": " Harris", "8772": "ported", "8773": "62", "8774": " Unfortunately", "8775": " divided", "8776": " trem", "8777": "Please", "8778": " Ext", "8779": "low", "8780": " innovation", "8781": " CH", "8782": " judges", "8783": " grav", "8784": " shout", "8785": " premium", "8786": " Ba", "8787": " brown", "8788": "unicip", "8789": "itage", "8790": "2016", "8791": "eding", "8792": " buff", "8793": " Which", "8794": "ounce", "8795": " checks", "8796": "600", "8797": " musical", "8798": "Her", "8799": " Iraqi", "8800": " Getty", "8801": " Det", "8802": " portray", "8803": " _", "8804": " threw", "8805": "abeth", "8806": " Bad", "8807": "itting", "8808": "helsea", "8809": " improving", "8810": " revel", "8811": "####", "8812": " efficiency", "8813": " distributed", "8814": " drama", "8815": " Po", "8816": " silver", "8817": " mistakes", "8818": "annels", "8819": "pie", "8820": " 51", "8821": "pled", "8822": " Indeed", "8823": " replacement", "8824": " locked", "8825": " temperatures", "8826": " spokesperson", "8827": " acknowledged", "8828": " Without", "8829": " cust", "8830": " Sony", "8831": " joke", "8832": " Patri", "8833": " lying", "8834": " responses", "8835": " comedy", "8836": " AC", "8837": " paralle", "8838": " Mexican", "8839": "argo", "8840": "ira", "8841": " dump", "8842": " 1995", "8843": " protecting", "8844": " soil", "8845": " Hell", "8846": " breaks", "8847": "aping", "8848": " gal", "8849": " barrel", "8850": "xx", "8851": " literature", "8852": " homeless", "8853": " permit", "8854": " Connect", "8855": " Set", "8856": " instrument", "8857": " Start", "8858": " legacy", "8859": " yellow", "8860": " referendum", "8861": "backs", "8862": "dated", "8863": "eries", "8864": "amacare", "8865": "ieties", "8866": " rom", "8867": " lets", "8868": " NATO", "8869": " Cost", "8870": "heim", "8871": " abandoned", "8872": "yer", "8873": " LA", "8874": " joy", "8875": "Your", "8876": " Samsung", "8877": " mad", "8878": "ijing", "8879": " virus", "8880": " NOT", "8881": "VE", "8882": " passengers", "8883": " Plus", "8884": " scan", "8885": " ordinary", "8886": " Moon", "8887": " Football", "8888": "inction", "8889": " festival", "8890": " moon", "8891": "ogs", "8892": " Use", "8893": " commonly", "8894": " Kong", "8895": "Art", "8896": " blast", "8897": "hesis", "8898": " demonstrated", "8899": " Hind", "8900": "erted", "8901": " ignored", "8902": " CA", "8903": " copies", "8904": " diverse", "8905": " Gun", "8906": " twenty", "8907": "PP", "8908": " Nev", "8909": "Source", "8910": " stolen", "8911": "Cons", "8912": "assador", "8913": " nomination", "8914": " Marvel", "8915": " tape", "8916": "arre", "8917": "oded", "8918": " funded", "8919": "conf", "8920": " midfield", "8921": " Buff", "8922": " falls", "8923": " Lyn", "8924": "acket", "8925": " (\u201c", "8926": "ocument", "8927": " Does", "8928": " rif", "8929": " naturally", "8930": " helpful", "8931": " exit", "8932": " acquired", "8933": " grid", "8934": " compe", "8935": " Ast", "8936": " studied", "8937": "HT", "8938": " rear", "8939": "esty", "8940": " les", "8941": " upgrade", "8942": " dad", "8943": "lahoma", "8944": " scope", "8945": " sty", "8946": "iley", "8947": " measured", "8948": "alia", "8949": "high", "8950": " bub", "8951": "comes", "8952": " transactions", "8953": "aware", "8954": " Pop", "8955": "yo", "8956": " AI", "8957": " counts", "8958": " arrive", "8959": " assert", "8960": " Eag", "8961": " partnership", "8962": "erg", "8963": " march", "8964": " insisted", "8965": " monitoring", "8966": " symp", "8967": " fro", "8968": " stages", "8969": " headquarters", "8970": "98", "8971": " Bron", "8972": "uh", "8973": " deficit", "8974": "only", "8975": " replied", "8976": "hop", "8977": " capabilities", "8978": "iate", "8979": " Capt", "8980": " ratio", "8981": " skept", "8982": " Dave", "8983": " Prince", "8984": " representing", "8985": " receiver", "8986": " \u2022", "8987": " protein", "8988": " Atlantic", "8989": " mathem", "8990": "eters", "8991": " clock", "8992": " Empire", "8993": "ela", "8994": " Bon", "8995": "king", "8996": "ctic", "8997": " supplies", "8998": " tracking", "8999": " Tour", "9000": "Facebook", "9001": "aver", "9002": " distract", "9003": " performing", "9004": " usage", "9005": "Ke", "9006": " Death", "9007": " Prov", "9008": "aeda", "9009": "\">", "9010": " Marsh", "9011": " unions", "9012": " Indiana", "9013": " Master", "9014": " racism", "9015": "shire", "9016": " ax", "9017": " guitar", "9018": " conservatives", "9019": " universities", "9020": " assessment", "9021": " proposals", "9022": "cut", "9023": " auto", "9024": " Scient", "9025": " 1994", "9026": " equality", "9027": "bridge", "9028": "TR", "9029": " plain", "9030": " accomplish", "9031": " criticized", "9032": " hoped", "9033": " tie", "9034": "NS", "9035": " waters", "9036": "BM", "9037": " trave", "9038": " Ros", "9039": "zing", "9040": "rimin", "9041": " Trib", "9042": " concrete", "9043": "ji", "9044": " conventional", "9045": "ormal", "9046": " Sometimes", "9047": " render", "9048": " Pass", "9049": "encing", "9050": " warn", "9051": " domain", "9052": " beauty", "9053": "made", "9054": " shopping", "9055": "plus", "9056": " Denver", "9057": "ecutive", "9058": "ntil", "9059": "door", "9060": " appointed", "9061": " ramp", "9062": " programme", "9063": " letting", "9064": " Aud", "9065": " Bureau", "9066": " exch", "9067": "har", "9068": " reliable", "9069": "fund", "9070": "orge", "9071": "omes", "9072": "ught", "9073": " Sus", "9074": " 2020", "9075": " inequ", "9076": "AND", "9077": "pton", "9078": " Galaxy", "9079": " introduction", "9080": "usalem", "9081": " absor", "9082": "ais", "9083": " dismissed", "9084": " abroad", "9085": " Mill", "9086": " dust", "9087": " ec", "9088": "irts", "9089": "rite", "9090": " cance", "9091": " Abb", "9092": "olph", "9093": "Comp", "9094": " appearances", "9095": " artific", "9096": " ves", "9097": " visiting", "9098": " Associated", "9099": "dney", "9100": "organ", "9101": "crib", "9102": " landscape", "9103": "archy", "9104": "mony", "9105": "OK", "9106": " classified", "9107": "theless", "9108": " Lim", "9109": " Jam", "9110": " drove", "9111": "agic", "9112": " Utah", "9113": " trigger", "9114": " rescue", "9115": " Corpor", "9116": " veterans", "9117": "2015", "9118": "enez", "9119": " entitled", "9120": " hyper", "9121": " presidency", "9122": " hung", "9123": " Age", "9124": " Orig", "9125": "ington", "9126": " bread", "9127": " museum", "9128": " \u201d", "9129": " Award", "9130": " Portland", "9131": " Line", "9132": " Technology", "9133": "ultane", "9134": "71", "9135": " transit", "9136": " patch", "9137": " urged", "9138": " blocked", "9139": " Ontario", "9140": " hockey", "9141": " senator", "9142": "iano", "9143": " centers", "9144": " populations", "9145": " Front", "9146": " congressional", "9147": " spokeswoman", "9148": "fol", "9149": " Sweden", "9150": " Code", "9151": ".]", "9152": "rooms", "9153": " predicted", "9154": "aga", "9155": " dub", "9156": " rocket", "9157": " assign", "9158": " politically", "9159": " whenever", "9160": " firing", "9161": " WH", "9162": "ped", "9163": " clar", "9164": " wider", "9165": " targeting", "9166": " cig", "9167": " Cooper", "9168": " Low", "9169": "Yet", "9170": " ~", "9171": "jud", "9172": " Olympic", "9173": " breath", "9174": " sequence", "9175": " requested", "9176": " survival", "9177": " Nintendo", "9178": " dates", "9179": " swim", "9180": " Ur", "9181": "through", "9182": " testimony", "9183": " pursue", "9184": " persons", "9185": "Still", "9186": " documentary", "9187": " Kar", "9188": " approached", "9189": "2014", "9190": " Girl", "9191": "they", "9192": " compare", "9193": " membership", "9194": "ordinary", "9195": "acco", "9196": " Bible", "9197": "afe", "9198": " recall", "9199": "Are", "9200": " mole", "9201": " submit", "9202": "inating", "9203": " Ha", "9204": "bow", "9205": " Roberts", "9206": "izabeth", "9207": " representatives", "9208": " tactics", "9209": " employed", "9210": "olves", "9211": " soccer", "9212": " quote", "9213": "Ty", "9214": "********", "9215": " brilliant", "9216": "\u2026\u2026", "9217": " Liverpool", "9218": " popularity", "9219": " violation", "9220": "trans", "9221": " pig", "9222": " tips", "9223": " Justin", "9224": "Though", "9225": " Cro", "9226": "pa", "9227": " contrad", "9228": "inals", "9229": " introduce", "9230": " Alexander", "9231": "berry", "9232": "break", "9233": "ounding", "9234": "rapped", "9235": " salt", "9236": " satellite", "9237": " shadow", "9238": "orous", "9239": "\u0103", "9240": " disorder", "9241": "atar", "9242": " monthly", "9243": " Form", "9244": " phrase", "9245": "ctr", "9246": " Ted", "9247": " DO", "9248": " fighter", "9249": " restaurants", "9250": "was", "9251": " banking", "9252": "isons", "9253": " thorough", "9254": " designs", "9255": " Mach", "9256": " bonus", "9257": " saving", "9258": "don", "9259": " prisoners", "9260": " mac", "9261": " objective", "9262": "enter", "9263": " mit", "9264": " retirement", "9265": "olds", "9266": " hosp", "9267": "ded", "9268": " acid", "9269": " focusing", "9270": " Hur", "9271": " rush", "9272": " pipeline", "9273": " entreprene", "9274": " Prop", "9275": "ester", "9276": " experiments", "9277": " unexpected", "9278": "ois", "9279": " wedd", "9280": " PA", "9281": "iki", "9282": "ouri", "9283": " Ak", "9284": "ocolate", "9285": " generations", "9286": " Hop", "9287": " producers", "9288": "CO", "9289": " channels", "9290": " prepar", "9291": " scientist", "9292": " Adv", "9293": "emed", "9294": " forcing", "9295": " Cow", "9296": " butt", "9297": " List", "9298": " celebrate", "9299": " servers", "9300": " forecast", "9301": "ika", "9302": " abilities", "9303": "fare", "9304": " loose", "9305": "ennis", "9306": " mos", "9307": " demanding", "9308": "held", "9309": " cul", "9310": "84", "9311": " Jerusalem", "9312": " anxiety", "9313": "erts", "9314": " keys", "9315": " bab", "9316": "ederation", "9317": " deny", "9318": " overseas", "9319": " settled", "9320": " investigations", "9321": " Base", "9322": " childhood", "9323": " Vill", "9324": " argues", "9325": " actively", "9326": " preparing", "9327": " Click", "9328": " Maryland", "9329": " unpre", "9330": " phenomenon", "9331": " tab", "9332": " Liberal", "9333": "mans", "9334": "isk", "9335": " Run", "9336": " Bridge", "9337": " YOU", "9338": " stability", "9339": " weekly", "9340": " universal", "9341": "\u00b0", "9342": "elson", "9343": "oenix", "9344": " Beijing", "9345": " maintained", "9346": "mers", "9347": " Design", "9348": " Have", "9349": " Governor", "9350": " Harvard", "9351": " Bra", "9352": " wealthy", "9353": " innocent", "9354": " Dutch", "9355": "minute", "9356": " shame", "9357": "oz", "9358": " okay", "9359": " fool", "9360": " Obamacare", "9361": " flags", "9362": " weigh", "9363": " Among", "9364": " rooms", "9365": "mind", "9366": "asty", "9367": " encounter", "9368": " differently", "9369": " circle", "9370": " releases", "9371": " arguing", "9372": " surely", "9373": " Was", "9374": " tens", "9375": " rounds", "9376": " mini", "9377": " exha", "9378": "\u0627", "9379": " spots", "9380": "ahu", "9381": "vernment", "9382": " Fall", "9383": " anniversary", "9384": "Sim", "9385": " secondary", "9386": " lunch", "9387": "ompson", "9388": " healthcare", "9389": "aa", "9390": " savings", "9391": " provision", "9392": "irlf", "9393": " ?", "9394": "icism", "9395": " titled", "9396": " silence", "9397": " hydro", "9398": " legislative", "9399": " 53", "9400": " Oklahoma", "9401": "html", "9402": " reveals", "9403": " smoking", "9404": " arbit", "9405": "aved", "9406": " broader", "9407": " relax", "9408": " tonight", "9409": " landing", "9410": " aer", "9411": " submitted", "9412": "irlfriend", "9413": " smartphone", "9414": "rection", "9415": "isa", "9416": " fate", "9417": " questioned", "9418": " PD", "9419": " Warren", "9420": " 95", "9421": " Deb", "9422": " Belg", "9423": " smell", "9424": " Price", "9425": " alarm", "9426": " deadly", "9427": "tenance", "9428": " sorts", "9429": " Som", "9430": " outrage", "9431": " roof", "9432": " fur", "9433": " Edward", "9434": " odds", "9435": " quoted", "9436": "David", "9437": " harassment", "9438": "walk", "9439": " windows", "9440": " ratings", "9441": " fing", "9442": "ested", "9443": " errors", "9444": "agh", "9445": " 99", "9446": " chest", "9447": " reverse", "9448": " affordable", "9449": "eals", "9450": " mortg", "9451": " delic", "9452": "onder", "9453": "orious", "9454": " graduate", "9455": " civilian", "9456": " CS", "9457": " Beck", "9458": "essee", "9459": " reforms", "9460": "oret", "9461": " sear", "9462": " gent", "9463": " pron", "9464": " Story", "9465": " consent", "9466": " \u2212", "9467": " sevent", "9468": " threatening", "9469": "El", "9470": " Expl", "9471": " prosecutors", "9472": "Dem", "9473": " importantly", "9474": " Gulf", "9475": " propaganda", "9476": " stored", "9477": " adventure", "9478": "RL", "9479": "UST", "9480": " Vietnam", "9481": " Silver", "9482": "itter", "9483": " instructions", "9484": "lined", "9485": " calm", "9486": "VD", "9487": " precisely", "9488": " hal", "9489": " striking", "9490": " torture", "9491": " ceremony", "9492": " comprehensive", "9493": " Tech", "9494": " struggled", "9495": "race", "9496": "press", "9497": " puzz", "9498": " persu", "9499": " possess", "9500": "div", "9501": " awarded", "9502": " Wolf", "9503": " Link", "9504": "Reuters", "9505": "ailed", "9506": " shield", "9507": " intim", "9508": " 1992", "9509": "acts", "9510": "->", "9511": " bias", "9512": "after", "9513": " voices", "9514": " dying", "9515": " chicken", "9516": "ethe", "9517": " picks", "9518": " birds", "9519": "itary", "9520": " Bloom", "9521": " ages", "9522": " kilomet", "9523": "iev", "9524": " borders", "9525": " demonstrate", "9526": " consideration", "9527": " burning", "9528": " waves", "9529": " Berlin", "9530": " Sab", "9531": " pointing", "9532": "atern", "9533": " tremend", "9534": " Indust", "9535": " streaming", "9536": " Left", "9537": " Bud", "9538": " Magic", "9539": " cooperation", "9540": " Palestinians", "9541": " difficulty", "9542": " deserve", "9543": "akh", "9544": " trillion", "9545": " rookie", "9546": " Hon", "9547": " Leader", "9548": " Graham", "9549": "uten", "9550": "asant", "9551": "GA", "9552": " execution", "9553": " Netflix", "9554": " MORE", "9555": " staying", "9556": " assass", "9557": "83", "9558": " simultane", "9559": " dialogue", "9560": "izer", "9561": "ishop", "9562": " Ruby", "9563": " newsletter", "9564": "sl", "9565": " semi", "9566": "ierce", "9567": "portation", "9568": " Common", "9569": "step", "9570": "itol", "9571": "Watch", "9572": "rows", "9573": " distingu", "9574": " architecture", "9575": " assumed", "9576": " autonom", "9577": " stepped", "9578": " categories", "9579": "asury", "9580": " analyst", "9581": "Step", "9582": " promising", "9583": " judgment", "9584": "lee", "9585": "TP", "9586": " Carter", "9587": " drives", "9588": " consensus", "9589": " Main", "9590": " Scottish", "9591": " physically", "9592": " procedure", "9593": " playoffs", "9594": "Story", "9595": " Yemen", "9596": "igious", "9597": " greatly", "9598": "ributes", "9599": " Meanwhile", "9600": " strategies", "9601": "scribe", "9602": " stem", "9603": "yes", "9604": " wanting", "9605": " gif", "9606": "\u00c2\u00c3\u00c2\u00c3\u00c2\u00c3\u00c2\u00c3", "9607": "bered", "9608": " ans", "9609": "holders", "9610": " implications", "9611": "open", "9612": " whereas", "9613": " repeat", "9614": " cow", "9615": " cream", "9616": " highlights", "9617": "ceptions", "9618": " interf", "9619": "bury", "9620": "party", "9621": "omy", "9622": "Ms", "9623": " inches", "9624": " Sarah", "9625": " Chelsea", "9626": "apolis", "9627": "cedented", "9628": "EX", "9629": " Ark", "9630": " executives", "9631": " assigned", "9632": "orship", "9633": "etch", "9634": "raig", "9635": "lla", "9636": " Fal", "9637": "ova", "9638": " Lt", "9639": " alter", "9640": "hatt", "9641": " formation", "9642": " Six", "9643": " Tele", "9644": " smile", "9645": " Vice", "9646": " Person", "9647": " superior", "9648": " Crime", "9649": " frequency", "9650": "itual", "9651": " defeated", "9652": " remarkable", "9653": " contribution", "9654": "sect", "9655": " Hamilton", "9656": " Pres", "9657": " 120", "9658": " contacted", "9659": " emerging", "9660": " Ten", "9661": " accessible", "9662": " Az", "9663": " coinc", "9664": "rif", "9665": " Leon", "9666": "omed", "9667": " 54", "9668": " wounded", "9669": " dispute", "9670": "cest", "9671": " crimin", "9672": " meaningful", "9673": "igate", "9674": " managing", "9675": "stal", "9676": "adi", "9677": " participation", "9678": " hosted", "9679": " opens", "9680": "Hz", "9681": "SL", "9682": "bits", "9683": "Christ", "9684": " nic", "9685": "oice", "9686": "child", "9687": "const", "9688": " Capital", "9689": " blank", "9690": "annon", "9691": " Marx", "9692": " drone", "9693": " competing", "9694": "iffs", "9695": " donations", "9696": " Tes", "9697": "js", "9698": " revers", "9699": "ses", "9700": " GT", "9701": " ministry", "9702": " Hong", "9703": " ease", "9704": "aration", "9705": "ito", "9706": "umble", "9707": " centuries", "9708": "\u00e2", "9709": " memories", "9710": " Affairs", "9711": " Andre", "9712": " clothing", "9713": "\u2010", "9714": " nin", "9715": " promoting", "9716": " indicates", "9717": " 1993", "9718": "erent", "9719": " trials", "9720": " knee", "9721": " Sydney", "9722": " Jonathan", "9723": " gross", "9724": " athletes", "9725": "sa", "9726": " Bruce", "9727": " openly", "9728": " passage", "9729": "eremy", "9730": " Brexit", "9731": " endorse", "9732": " clinical", "9733": "Mus", "9734": " riding", "9735": "AY", "9736": " guidelines", "9737": " Store", "9738": " manifest", "9739": " investments", "9740": " Festival", "9741": " recipe", "9742": " enthusi", "9743": "***", "9744": " tired", "9745": " !", "9746": "vertisements", "9747": "Pre", "9748": " inspect", "9749": " legally", "9750": " suspects", "9751": " pharm", "9752": "eria", "9753": " substance", "9754": " dating", "9755": " facilit", "9756": " bin", "9757": " 1950", "9758": " margin", "9759": "aria", "9760": " eligible", "9761": " grade", "9762": "aki", "9763": "96", "9764": " damaged", "9765": "vision", "9766": " Management", "9767": "ateral", "9768": " Credit", "9769": " enhance", "9770": " transaction", "9771": " na", "9772": "Google", "9773": " custody", "9774": " fossil", "9775": " Assembly", "9776": " Mrs", "9777": "issue", "9778": " spell", "9779": "82", "9780": " Morgan", "9781": " Video", "9782": "van", "9783": "achel", "9784": " info", "9785": " mood", "9786": " Libya", "9787": " therapy", "9788": " lux", "9789": " poison", "9790": " divor", "9791": " memo", "9792": " Mess", "9793": " Instagram", "9794": " battles", "9795": " Trade", "9796": " gate", "9797": " Pict", "9798": "author", "9799": " tap", "9800": " Hold", "9801": " defending", "9802": " aged", "9803": " hip", "9804": " dish", "9805": " charity", "9806": " studying", "9807": " Batman", "9808": "SC", "9809": " educational", "9810": " Eff", "9811": "even", "9812": " racing", "9813": "uz", "9814": " perceived", "9815": " Der", "9816": "dy", "9817": " spectrum", "9818": " bowl", "9819": " muscle", "9820": " addresses", "9821": "watch", "9822": "TER", "9823": " Through", "9824": " stere", "9825": " Sean", "9826": " Eth", "9827": " presentation", "9828": " Exper", "9829": " seed", "9830": "Def", "9831": " expanding", "9832": " Uber", "9833": " Lam", "9834": " managers", "9835": " Boe", "9836": "oln", "9837": " backing", "9838": "week", "9839": "base", "9840": " tables", "9841": "olar", "9842": " discussing", "9843": "arts", "9844": " lapt", "9845": " Tok", "9846": " theories", "9847": " picking", "9848": " burden", "9849": " 250", "9850": "itudes", "9851": " missions", "9852": " kitchen", "9853": " dominant", "9854": " Pentagon", "9855": " Children", "9856": " hopefully", "9857": "81", "9858": " Tai", "9859": " vig", "9860": "riors", "9861": " followers", "9862": "acher", "9863": "hard", "9864": " tons", "9865": " capitalism", "9866": "odox", "9867": " pocket", "9868": " counterpart", "9869": "player", "9870": " underlying", "9871": "math", "9872": "orable", "9873": " impression", "9874": "Act", "9875": "assy", "9876": " AN", "9877": " Station", "9878": "Out", "9879": " Kick", "9880": " nerv", "9881": " discount", "9882": "alysis", "9883": " Oakland", "9884": " Op", "9885": " diseases", "9886": " Yeah", "9887": "ylum", "9888": "View", "9889": " stops", "9890": " foods", "9891": " industries", "9892": "gered", "9893": "ALL", "9894": "FO", "9895": " gathering", "9896": "igenous", "9897": " Vik", "9898": " bottle", "9899": " shipping", "9900": " surviv", "9901": "iture", "9902": " compat", "9903": " unfair", "9904": " coaching", "9905": " recruit", "9906": "left", "9907": " beings", "9908": " Equ", "9909": " fundra", "9910": " timing", "9911": " helic", "9912": " Metro", "9913": " sed", "9914": "rac", "9915": "market", "9916": "Mod", "9917": " arrival", "9918": "ocial", "9919": " graphics", "9920": " organic", "9921": " scrut", "9922": " Represent", "9923": " Creat", "9924": " Bal", "9925": " ML", "9926": "lando", "9927": " Gary", "9928": " Son", "9929": " beach", "9930": " bow", "9931": "AF", "9932": "ptions", "9933": " 56", "9934": " obsc", "9935": " creatures", "9936": " shell", "9937": " fled", "9938": " Keep", "9939": "\":\"", "9940": " eager", "9941": " institution", "9942": "sub", "9943": "missions", "9944": "Reg", "9945": " explaining", "9946": " procedures", "9947": " hire", "9948": " crus", "9949": " variable", "9950": "ogy", "9951": " tut", "9952": "roph", "9953": "iac", "9954": " roy", "9955": " Tennessee", "9956": "enezuel", "9957": " hospitals", "9958": " Roll", "9959": " Hawai", "9960": " Email", "9961": "aders", "9962": "Rem", "9963": " MLS", "9964": "angle", "9965": "Cal", "9966": "atively", "9967": " Elizabeth", "9968": " (\"", "9969": " signature", "9970": " punishment", "9971": " setup", "9972": " answered", "9973": "amous", "9974": " regulatory", "9975": " recre", "9976": " stance", "9977": " sovere", "9978": " rhetoric", "9979": "rior", "9980": " arr", "9981": " pulling", "9982": " preferred", "9983": " insult", "9984": "Mich", "9985": "Ge", "9986": " engineers", "9987": " module", "9988": " rebels", "9989": " Clark", "9990": " Wales", "9991": " dies", "9992": " requirement", "9993": "\u043a", "9994": "opyright", "9995": " Assad", "9996": " trends", "9997": " math", "9998": " Friend", "9999": " Murray", "10000": " Comey", "10001": "agger", "10002": "\u00f1", "10003": " acknowledge", "10004": " helicop", "10005": " Li", "10006": " Box", "10007": " beating", "10008": " Sure", "10009": "alties", "10010": "ui", "10011": "Click", "10012": " echo", "10013": " pill", "10014": "\u0443", "10015": " topics", "10016": " lad", "10017": " genes", "10018": " merch", "10019": " searching", "10020": " overcome", "10021": " interaction", "10022": "olving", "10023": " badly", "10024": "emic", "10025": " 600", "10026": " sixth", "10027": "izza", "10028": " everyday", "10029": " periods", "10030": "duction", "10031": "will", "10032": " principal", "10033": " psychological", "10034": "mic", "10035": " Mit", "10036": " statist", "10037": " adviser", "10038": " rend", "10039": "section", "10040": " signals", "10041": " sentenced", "10042": "cosystem", "10043": " Thompson", "10044": " commander", "10045": " billions", "10046": " Executive", "10047": " outlets", "10048": " cler", "10049": " Bi", "10050": " lineup", "10051": "abet", "10052": "has", "10053": "rix", "10054": "unicipal", "10055": "NBC", "10056": "check", "10057": "news", "10058": "kee", "10059": " undert", "10060": " Gil", "10061": "oca", "10062": "via", "10063": "Earlier", "10064": " speaker", "10065": "brid", "10066": " genre", "10067": " sections", "10068": " pollution", "10069": " occurs", "10070": " gig", "10071": " escal", "10072": " McK", "10073": " Final", "10074": " convince", "10075": " Rather", "10076": " blockchain", "10077": "PL", "10078": "grade", "10079": " loves", "10080": "ds", "10081": " Using", "10082": "arency", "10083": "tsburgh", "10084": " requiring", "10085": " shoes", "10086": "Finally", "10087": " Hart", "10088": " segment", "10089": " tweets", "10090": " unprecedented", "10091": " homosexual", "10092": " diam", "10093": "Top", "10094": " partly", "10095": " Delhi", "10096": " Iron", "10097": " Finally", "10098": "92", "10099": " corrupt", "10100": " collaps", "10101": " instant", "10102": " economics", "10103": " arts", "10104": " Charlie", "10105": " Kentucky", "10106": " lect", "10107": " Holl", "10108": " removal", "10109": " Bow", "10110": " span", "10111": " tempor", "10112": "netic", "10113": " citing", "10114": " migrants", "10115": " attractive", "10116": "ental", "10117": " bold", "10118": " GO", "10119": " concepts", "10120": " approaches", "10121": " Gordon", "10122": " carries", "10123": " vend", "10124": " compensation", "10125": "State", "10126": " engineer", "10127": " Michel", "10128": " bullet", "10129": " cock", "10130": " elder", "10131": " weakness", "10132": " extraordinary", "10133": "\",\"", "10134": "atus", "10135": " Yan", "10136": " Sav", "10137": " Therefore", "10138": "liest", "10139": " eggs", "10140": " fabric", "10141": " 1991", "10142": "", "10143": " Event", "10144": " loop", "10145": " amendment", "10146": " sheet", "10147": " frequent", "10148": " perception", "10149": "VP", "10150": " ridiculous", "10151": " Jean", "10152": " Psych", "10153": " roots", "10154": " Anna", "10155": " rolling", "10156": " upload", "10157": " gene", "10158": " posting", "10159": "eness", "10160": " eliminate", "10161": " instances", "10162": "oli", "10163": "UM", "10164": "owski", "10165": " Sound", "10166": "arted", "10167": " invasion", "10168": " sits", "10169": " Est", "10170": "necess", "10171": " Ve", "10172": " maintenance", "10173": " fo", "10174": " deadline", "10175": "cor", "10176": " Intel", "10177": " mice", "10178": " talented", "10179": "97", "10180": " ).", "10181": " GDP", "10182": " unve", "10183": "isdom", "10184": " Whether", "10185": "ixture", "10186": "oting", "10187": " mask", "10188": " Ox", "10189": " arc", "10190": " colour", "10191": " publishing", "10192": "screen", "10193": "Fl", "10194": " Priv", "10195": "cre", "10196": " constitu", "10197": " notable", "10198": "rowing", "10199": " Page", "10200": " dramatically", "10201": "Comm", "10202": " Harper", "10203": " displayed", "10204": " Ze", "10205": " parad", "10206": "Paul", "10207": " contemporary", "10208": "gus", "10209": " comics", "10210": " mystery", "10211": " bene", "10212": " aims", "10213": " utility", "10214": " correctly", "10215": " Simon", "10216": " camps", "10217": " Photos", "10218": " Pers", "10219": " analysts", "10220": " inquiry", "10221": " Captain", "10222": " functional", "10223": " insight", "10224": " 57", "10225": " encouraging", "10226": " dreams", "10227": " buck", "10228": " Khan", "10229": " labour", "10230": " Russell", "10231": " glad", "10232": " neighbors", "10233": " associate", "10234": "iban", "10235": " BM", "10236": " prize", "10237": "vi", "10238": " recommendations", "10239": " cheaper", "10240": "rot", "10241": " delight", "10242": " collaboration", "10243": " export", "10244": " Below", "10245": "throp", "10246": " Dragon", "10247": " deployed", "10248": " gest", "10249": " reserved", "10250": " communicate", "10251": "arget", "10252": " manufacturers", "10253": " fatal", "10254": " lift", "10255": "elle", "10256": " toxic", "10257": " Phill", "10258": " disappointed", "10259": " Reagan", "10260": "250", "10261": "AB", "10262": " diplomatic", "10263": " Tax", "10264": "oga", "10265": " prompted", "10266": " Bol", "10267": " 85", "10268": " distur", "10269": "incoln", "10270": " traged", "10271": " repair", "10272": " employers", "10273": " Stew", "10274": " Phoenix", "10275": "estyle", "10276": " interviewed", "10277": "ighth", "10278": " intr", "10279": " demanded", "10280": " landed", "10281": "Mark", "10282": "apore", "10283": " moderate", "10284": "2013", "10285": " Access", "10286": " Hand", "10287": " heroes", "10288": "wa", "10289": " couples", "10290": " fights", "10291": " violations", "10292": " nose", "10293": " Ever", "10294": " seized", "10295": " Brooklyn", "10296": " sessions", "10297": " coup", "10298": "TON", "10299": " explosion", "10300": " Economic", "10301": " knock", "10302": " prospects", "10303": "onz", "10304": "instein", "10305": " Fant", "10306": " inequality", "10307": " ingredients", "10308": " occasionally", "10309": " pleased", "10310": "Dis", "10311": " subsc", "10312": " cens", "10313": " cognitive", "10314": "150", "10315": " representation", "10316": " accompan", "10317": "fit", "10318": " punch", "10319": " Ocean", "10320": " artificial", "10321": " Authority", "10322": " birthday", "10323": " modified", "10324": "pack", "10325": " biological", "10326": " constitution", "10327": " ET", "10328": " guests", "10329": " resolve", "10330": " lessons", "10331": " JavaScript", "10332": " pa", "10333": "lude", "10334": " sli", "10335": " Sa", "10336": " consciousness", "10337": "istant", "10338": " Montreal", "10339": " Occ", "10340": "hist", "10341": " Cole", "10342": "dr", "10343": " ecosystem", "10344": " recon", "10345": "rock", "10346": " irre", "10347": "93", "10348": " Digital", "10349": " intellig", "10350": "ricane", "10351": " owns", "10352": " oppose", "10353": "mir", "10354": " EPA", "10355": " Reserve", "10356": " Given", "10357": " Order", "10358": "eling", "10359": "Update", "10360": "ipedia", "10361": "lly", "10362": " drunk", "10363": "pg", "10364": " Jenn", "10365": " adequ", "10366": " butter", "10367": "ixon", "10368": " towns", "10369": " parallel", "10370": " performances", "10371": "leans", "10372": " designer", "10373": " adopt", "10374": " Dick", "10375": "Next", "10376": " terr", "10377": "2017", "10378": " pregnant", "10379": " interpre", "10380": " volunteers", "10381": "acre", "10382": " Antonio", "10383": " lifetime", "10384": " defender", "10385": " Five", "10386": "Thanks", "10387": " hanging", "10388": " relation", "10389": " Staff", "10390": " emotions", "10391": "agen", "10392": " anonymous", "10393": " logo", "10394": " Hal", "10395": " asset", "10396": "Whe", "10397": " Gro", "10398": " maintaining", "10399": " stimul", "10400": "ailable", "10401": " Bul", "10402": " Burn", "10403": " libr", "10404": "Gener", "10405": " Non", "10406": "(\"", "10407": "ulty", "10408": " imposed", "10409": " 800", "10410": " cheese", "10411": " 58", "10412": "graph", "10413": " shirt", "10414": "isition", "10415": "endar", "10416": "Time", "10417": " soldier", "10418": "Instead", "10419": " Lear", "10420": " clip", "10421": "wed", "10422": " bands", "10423": "iens", "10424": " professionals", "10425": "Israel", "10426": " militants", "10427": " confused", "10428": "ials", "10429": " girlfriend", "10430": " stamp", "10431": "94", "10432": " wedding", "10433": "ikh", "10434": " swit", "10435": "awks", "10436": " jumped", "10437": " traveling", "10438": "ols", "10439": " lesson", "10440": "umph", "10441": "gets", "10442": "human", "10443": " shocked", "10444": " nurs", "10445": " underground", "10446": " Marine", "10447": "acles", "10448": "some", "10449": " Convention", "10450": " accum", "10451": " abstract", "10452": " boxes", "10453": " Dur", "10454": "hattan", "10455": "appropri", "10456": " recalled", "10457": "EG", "10458": " guid", "10459": " isolated", "10460": " stro", "10461": " interior", "10462": " Player", "10463": " Know", "10464": "DR", "10465": "early", "10466": " Library", "10467": " vocal", "10468": " opposing", "10469": " existed", "10470": " Missouri", "10471": "wind", "10472": " stack", "10473": " concerning", "10474": " configuration", "10475": " Venezuel", "10476": " Doctor", "10477": "\u00e7", "10478": " quit", "10479": " advocate", "10480": " annoy", "10481": "starter", "10482": " Hitler", "10483": " creature", "10484": " surrounded", "10485": "tra", "10486": " Custom", "10487": " summit", "10488": " describing", "10489": " sne", "10490": " subur", "10491": " podcast", "10492": " Protection", "10493": " Channel", "10494": " forum", "10495": " vert", "10496": " jihad", "10497": "owned", "10498": " SH", "10499": " pm", "10500": " Orleans", "10501": " Alan", "10502": "", "10503": "luded", "10504": " minimal", "10505": " scream", "10506": " inspiration", "10507": " mile", "10508": "Net", "10509": " desperate", "10510": " Capitol", "10511": " silent", "10512": "Trans", "10513": "abe", "10514": " brutal", "10515": "Fi", "10516": " Argent", "10517": " inherent", "10518": " utter", "10519": "bourne", "10520": "700", "10521": " kicked", "10522": " integration", "10523": "lu", "10524": " choosing", "10525": " refers", "10526": "KE", "10527": " Rome", "10528": " peaceful", "10529": " Trust", "10530": " references", "10531": "UC", "10532": "hr", "10533": "Name", "10534": " holes", "10535": " Han", "10536": " integrity", "10537": " organisation", "10538": "oub", "10539": " Coal", "10540": " ideology", "10541": " yell", "10542": "hero", "10543": " desktop", "10544": "Ag", "10545": " electoral", "10546": " momentum", "10547": " buried", "10548": " registration", "10549": " Area", "10550": "father", "10551": " bankrupt", "10552": " Rs", "10553": " yeah", "10554": " Case", "10555": " struggles", "10556": " Hamp", "10557": " Nevada", "10558": " suspic", "10559": " teammates", "10560": " embrace", "10561": "books", "10562": " evident", "10563": " Steel", "10564": "odge", "10565": " meal", "10566": " credits", "10567": "too", "10568": "election", "10569": "aro", "10570": " refuse", "10571": " ancest", "10572": "tainment", "10573": "commun", "10574": " 72", "10575": "gate", "10576": " probe", "10577": " sustainable", "10578": " Following", "10579": " teeth", "10580": "imize", "10581": "mits", "10582": "DC", "10583": " knife", "10584": " expense", "10585": "\u2588", "10586": " wondering", "10587": " Arsenal", "10588": " promotion", "10589": " jer", "10590": " athe", "10591": " nervous", "10592": " bombs", "10593": " Online", "10594": " acceptable", "10595": " refugee", "10596": " scar", "10597": " dual", "10598": "Gu", "10599": "rend", "10600": "hire", "10601": " 1989", "10602": " fleet", "10603": " Leban", "10604": " Mountain", "10605": "inst", "10606": " bird", "10607": " guards", "10608": " Move", "10609": "Speaking", "10610": " Mun", "10611": "bound", "10612": " Barb", "10613": " pride", "10614": " subscribe", "10615": " closest", "10616": "cal", "10617": "ART", "10618": "income", "10619": "2012", "10620": " removing", "10621": " convert", "10622": " Orlando", "10623": " expenses", "10624": " profound", "10625": "ben", "10626": "strong", "10627": "dict", "10628": " Word", "10629": "ibl", "10630": "stop", "10631": " dominated", "10632": "chell", "10633": " flour", "10634": " IM", "10635": " Pittsburgh", "10636": " stating", "10637": "Station", "10638": " electron", "10639": "function", "10640": " occasional", "10641": " briefly", "10642": " Mail", "10643": " Independent", "10644": " justify", "10645": "utter", "10646": " compromise", "10647": " Dream", "10648": " assembly", "10649": " characteristics", "10650": " Source", "10651": " exclusively", "10652": "user", "10653": " engaging", "10654": " Portug", "10655": " Rest", "10656": " considerable", "10657": " Alliance", "10658": " Writ", "10659": " survived", "10660": "grad", "10661": " journalism", "10662": " donors", "10663": " tremendous", "10664": " Could", "10665": " interpretation", "10666": " executed", "10667": "HP", "10668": " breast", "10669": "oker", "10670": "Share", "10671": "ocated", "10672": " Adams", "10673": " Everyone", "10674": " loaded", "10675": " monster", "10676": "security", "10677": " Ban", "10678": "cap", "10679": " prost", "10680": " Nazi", "10681": " Indones", "10682": " Short", "10683": " subsequently", "10684": "elve", "10685": " keyboard", "10686": " disappear", "10687": " outcomes", "10688": " flee", "10689": " harsh", "10690": "inge", "10691": " contrary", "10692": " sophistic", "10693": "otte", "10694": " confusion", "10695": " orbit", "10696": "attered", "10697": " CON", "10698": "Hey", "10699": " Pant", "10700": " chaos", "10701": "arson", "10702": " printed", "10703": " steady", "10704": " engines", "10705": " ministers", "10706": "orneys", "10707": "QL", "10708": " reserv", "10709": " robust", "10710": "istle", "10711": " Andy", "10712": " \u00b1", "10713": " lobb", "10714": " spo", "10715": " obser", "10716": " orient", "10717": "--------------------------------", "10718": "Gl", "10719": " Sheriff", "10720": "reck", "10721": " speakers", "10722": "Thank", "10723": " Raj", "10724": " districts", "10725": " gameplay", "10726": " Norm", "10727": " certific", "10728": " Bu", "10729": " sexually", "10730": " concert", "10731": " curious", "10732": " fel", "10733": "rett", "10734": " mirror", "10735": " routes", "10736": "Pal", "10737": "List", "10738": " Duke", "10739": " asylum", "10740": " Manhattan", "10741": "scar", "10742": " speculation", "10743": "lihood", "10744": "immer", "10745": " proportion", "10746": "}}", "10747": " physics", "10748": "mble", "10749": " attending", "10750": " brands", "10751": " 59", "10752": " revolutionary", "10753": " chip", "10754": " fails", "10755": " Wright", "10756": "BN", "10757": " hiring", "10758": " pir", "10759": "leep", "10760": " gri", "10761": " CC", "10762": " Tesla", "10763": "good", "10764": " Treasury", "10765": " OR", "10766": " patent", "10767": "apper", "10768": " Having", "10769": " cabinet", "10770": " Les", "10771": " None", "10772": "olid", "10773": "ublished", "10774": " Hu", "10775": " criminals", "10776": " Aren", "10777": " nowhere", "10778": " chronic", "10779": " deemed", "10780": " passenger", "10781": "Red", "10782": "Car", "10783": " witnesses", "10784": " packages", "10785": " Officer", "10786": " Spir", "10787": " challenged", "10788": "", "10789": " Taliban", "10790": " Mult", "10791": "white", "10792": " embed", "10793": "mented", "10794": " Lincoln", "10795": " Gh", "10796": " Standard", "10797": " strengthen", "10798": " Ven", "10799": " Current", "10800": "ifier", "10801": "\u00e8", "10802": " Holy", "10803": "anim", "10804": " cinem", "10805": "Right", "10806": " Later", "10807": "ele", "10808": " Giants", "10809": " Change", "10810": " endors", "10811": " presents", "10812": " Edition", "10813": " fert", "10814": "omic", "10815": " charging", "10816": " oxy", "10817": "Black", "10818": " dropping", "10819": " evac", "10820": " juris", "10821": " 62", "10822": " Ukrainian", "10823": " guaranteed", "10824": " correl", "10825": " Band", "10826": " Aaron", "10827": " Future", "10828": "card", "10829": "reek", "10830": " Ts", "10831": " Jun", "10832": " figured", "10833": "ernand", "10834": "vas", "10835": " avo", "10836": " assemb", "10837": " packed", "10838": " leaked", "10839": " Kings", "10840": " alert", "10841": " Eb", "10842": " da", "10843": " suspension", "10844": " Nether", "10845": "ophob", "10846": " FA", "10847": " hosts", "10848": " Vlad", "10849": " Craig", "10850": "reshold", "10851": " defended", "10852": " Tower", "10853": " mathemat", "10854": " attracted", "10855": " Perry", "10856": " Alp", "10857": " Tel", "10858": " produces", "10859": "nie", "10860": " Pope", "10861": " hunting", "10862": " engagement", "10863": " developments", "10864": " checking", "10865": " Jeremy", "10866": " pleasure", "10867": " slot", "10868": " tear", "10869": " Du", "10870": "ishers", "10871": " Singapore", "10872": "aste", "10873": " epic", "10874": " simultaneously", "10875": "oned", "10876": " caps", "10877": "\u2026.", "10878": "limited", "10879": " SU", "10880": " researcher", "10881": " patri", "10882": "nan", "10883": "thood", "10884": " wet", "10885": "test", "10886": "~~", "10887": " blocking", "10888": " repeal", "10889": " void", "10890": "ateful", "10891": " Robinson", "10892": " CPU", "10893": " integrated", "10894": " Kit", "10895": " Dak", "10896": "riv", "10897": " lin", "10898": " bacteria", "10899": "gly", "10900": "adesh", "10901": "TE", "10902": " recovered", "10903": " boom", "10904": " enact", "10905": " angle", "10906": "amine", "10907": " Would", "10908": "merce", "10909": "lynn", "10910": "imir", "10911": " examine", "10912": "rics", "10913": "\u0101", "10914": "oft", "10915": " junior", "10916": " vit", "10917": " Gill", "10918": " flavor", "10919": " lane", "10920": " Studies", "10921": " solo", "10922": " USB", "10923": " cycl", "10924": " variables", "10925": " bombing", "10926": "wich", "10927": "ATCH", "10928": "izarre", "10929": " fingers", "10930": " dependent", "10931": " bits", "10932": " CB", "10933": "gged", "10934": " Chairman", "10935": "Cor", "10936": " taxpayers", "10937": " agreements", "10938": " editorial", "10939": " ric", "10940": " meth", "10941": "thodox", "10942": " radiation", "10943": "JP", "10944": " households", "10945": "rc", "10946": " surprisingly", "10947": " Place", "10948": " </", "10949": "thur", "10950": " Total", "10951": " flights", "10952": " raises", "10953": " Russians", "10954": "may", "10955": " Hung", "10956": " Reddit", "10957": "bin", "10958": "opt", "10959": "dep", "10960": " publish", "10961": " impacts", "10962": "ERE", "10963": " backs", "10964": " blamed", "10965": " Gib", "10966": " Bor", "10967": " decrease", "10968": " forgotten", "10969": " scared", "10970": " expects", "10971": " consecut", "10972": " Ub", "10973": " batter", "10974": " motivated", "10975": " Entertainment", "10976": "Br", "10977": " MPs", "10978": " 66", "10979": " accuracy", "10980": "Book", "10981": " Griff", "10982": " enabled", "10983": " alliance", "10984": " Opp", "10985": "ressing", "10986": " productive", "10987": " unnecess", "10988": " inher", "10989": " intimid", "10990": " burned", "10991": " Mississ", "10992": "bul", "10993": "bat", "10994": "bian", "10995": " killer", "10996": " continu", "10997": " Sci", "10998": "rah", "10999": " vent", "11000": " Things", "11001": "looking", "11002": "comp", "11003": " Poland", "11004": " tower", "11005": " barg", "11006": " ranking", "11007": " restore", "11008": " SD", "11009": " influenced", "11010": "uter", "11011": "terror", "11012": " tanks", "11013": " identical", "11014": " HIV", "11015": "etheless", "11016": " Stewart", "11017": " los", "11018": " ignor", "11019": " accord", "11020": " Command", "11021": " Model", "11022": "olitical", "11023": " courage", "11024": " occasion", "11025": " Olympics", "11026": " flav", "11027": " expecting", "11028": " reass", "11029": " occupied", "11030": " venture", "11031": "inite", "11032": "icked", "11033": "MAN", "11034": " Should", "11035": "rition", "11036": "Down", "11037": " Think", "11038": " courtesy", "11039": " Warner", "11040": " hub", "11041": "iar", "11042": "aments", "11043": " explicitly", "11044": " criteria", "11045": "Former", "11046": " qualified", "11047": " inevitable", "11048": "large", "11049": "iden", "11050": "ulse", "11051": " visits", "11052": " distribut", "11053": "aco", "11054": " subtle", "11055": " shops", "11056": "forward", "11057": " evolved", "11058": "ixel", "11059": "ahoo", "11060": "iere", "11061": " transferred", "11062": " senators", "11063": " trailer", "11064": " animation", "11065": " conflicts", "11066": " desp", "11067": "ippi", "11068": " Log", "11069": "link", "11070": " releasing", "11071": " functionality", "11072": "91", "11073": " checked", "11074": " nationwide", "11075": " uncertainty", "11076": "achment", "11077": " telephone", "11078": " Type", "11079": " Canadians", "11080": "SU", "11081": " departure", "11082": "oup", "11083": " strip", "11084": " promoted", "11085": " organis", "11086": " politician", "11087": " belt", "11088": " inaug", "11089": "TO", "11090": " chocolate", "11091": " meters", "11092": " babies", "11093": " Christopher", "11094": " Wi", "11095": "about", "11096": " Mother", "11097": " Niger", "11098": " Kr", "11099": "zone", "11100": "leading", "11101": " Ottawa", "11102": "Three", "11103": " Ent", "11104": " Support", "11105": "Gr", "11106": " screw", "11107": " Mario", "11108": " imprison", "11109": " earthqu", "11110": " stats", "11111": "uating", "11112": "agine", "11113": " transparency", "11114": " investigated", "11115": "untu", "11116": " Jane", "11117": "onduct", "11118": " applies", "11119": " ally", "11120": " modest", "11121": " wise", "11122": " Caption", "11123": " privilege", "11124": "ardo", "11125": "ollar", "11126": " singer", "11127": " painting", "11128": "rying", "11129": " Ni", "11130": "Yeah", "11131": " bases", "11132": " Univers", "11133": "actor", "11134": " solely", "11135": " provider", "11136": "var", "11137": " NO", "11138": "being", "11139": " insist", "11140": " Marg", "11141": " tent", "11142": " jet", "11143": " unre", "11144": " 63", "11145": "breaking", "11146": " uncomfort", "11147": " concentration", "11148": " reluct", "11149": " kiss", "11150": " iPad", "11151": "imb", "11152": " Jerry", "11153": "kes", "11154": "Good", "11155": " static", "11156": "olas", "11157": " Moreover", "11158": " volunt", "11159": " Corp", "11160": " Cold", "11161": " Egyptian", "11162": " balls", "11163": "Supp", "11164": " formula", "11165": "rifice", "11166": " voc", "11167": " ought", "11168": "erald", "11169": " infection", "11170": " headlines", "11171": "keley", "11172": " theft", "11173": " Medicaid", "11174": " dimin", "11175": " sake", "11176": " bol", "11177": " BC", "11178": " Drug", "11179": " invested", "11180": "izations", "11181": " entrance", "11182": " impressed", "11183": " algorithm", "11184": " Product", "11185": " handled", "11186": " py", "11187": " lifestyle", "11188": " Queens", "11189": "rike", "11190": " disabled", "11191": "leted", "11192": " regarded", "11193": "overs", "11194": " influential", "11195": "block", "11196": " Tam", "11197": " poet", "11198": " overl", "11199": "anguage", "11200": " lens", "11201": "ATION", "11202": "offs", "11203": "orate", "11204": "Obama", "11205": "df", "11206": " Hug", "11207": " Hampshire", "11208": " analys", "11209": " Kl", "11210": " inbox", "11211": " similarly", "11212": "ilation", "11213": " consecutive", "11214": "istance", "11215": " chips", "11216": "bes", "11217": "uther", "11218": "vo", "11219": " provisions", "11220": "ampa", "11221": "?\u2019", "11222": " mart", "11223": " Cas", "11224": " colleg", "11225": " bulk", "11226": " prosecutor", "11227": " password", "11228": "\u0644", "11229": "assion", "11230": "ILL", "11231": " suck", "11232": " destination", "11233": " Wy", "11234": " absurd", "11235": " Dal", "11236": " bone", "11237": " Blood", "11238": "?)", "11239": "unity", "11240": " accepting", "11241": " Corporation", "11242": "ista", "11243": " gym", "11244": " prosecution", "11245": " filter", "11246": "such", "11247": " SN", "11248": " immune", "11249": " Unlike", "11250": " guidance", "11251": "idal", "11252": " inex", "11253": " Film", "11254": "olitan", "11255": " destro", "11256": " tears", "11257": " Netherlands", "11258": " Alaska", "11259": " antib", "11260": " Rangers", "11261": " operated", "11262": " Marc", "11263": " Had", "11264": " rolled", "11265": " Oil", "11266": " lean", "11267": " Winter", "11268": "tarian", "11269": " Da", "11270": ").[", "11271": "dog", "11272": " reck", "11273": " launching", "11274": " Grant", "11275": " complained", "11276": " keen", "11277": " tragedy", "11278": " Louisiana", "11279": "ouses", "11280": " NS", "11281": "town", "11282": "ante", "11283": " operator", "11284": "armed", "11285": " males", "11286": "\u201d)", "11287": " garden", "11288": "oning", "11289": " preserve", "11290": "urches", "11291": " detention", "11292": "track", "11293": " neur", "11294": "opp", "11295": " bother", "11296": "asm", "11297": "million", "11298": " boards", "11299": " Quest", "11300": "non", "11301": " Father", "11302": "vironments", "11303": " Medicare",
[...]
